{
  "version": "1.0",
  "truncation": null,
  "padding": null,
  "added_tokens": [
    {
      "id": 0,
      "content": "<|startoftext|>",
      "single_word": false,
      "lstrip": false,
      "rstrip": false,
      "normalized": false,
      "special": true
    },
    {
      "id": 1,
      "content": "<|endoftext|>",
      "single_word": false,
      "lstrip": false,
      "rstrip": false,
      "normalized": false,
      "special": true
    },
    {
      "id": 2,
      "content": "<|user|>",
      "single_word": false,
      "lstrip": false,
      "rstrip": false,
      "normalized": false,
      "special": true
    },
    {
      "id": 3,
      "content": "<|system|>",
      "single_word": false,
      "lstrip": false,
      "rstrip": false,
      "normalized": false,
      "special": true
    },
    {
      "id": 4,
      "content": "<|assistant|>",
      "single_word": false,
      "lstrip": false,
      "rstrip": false,
      "normalized": false,
      "special": true
    },
    {
      "id": 25000,
      "content": "<|startoftext>",
      "single_word": false,
      "lstrip": false,
      "rstrip": false,
      "normalized": false,
      "special": true
    }
  ],
  "normalizer": null,
  "pre_tokenizer": {
    "type": "ByteLevel",
    "add_prefix_space": false,
    "trim_offsets": true,
    "use_regex": true
  },
  "post_processor": {
    "type": "ByteLevel",
    "add_prefix_space": true,
    "trim_offsets": false,
    "use_regex": true
  },
  "decoder": {
    "type": "ByteLevel",
    "add_prefix_space": true,
    "trim_offsets": true,
    "use_regex": true
  },
  "model": {
    "type": "BPE",
    "dropout": null,
    "unk_token": null,
    "continuing_subword_prefix": null,
    "end_of_word_suffix": null,
    "fuse_unk": false,
    "byte_fallback": false,
    "ignore_merges": false,
    "vocab": {
      "<|startoftext|>": 0,
      "<|endoftext|>": 1,
      "<|user|>": 2,
      "<|system|>": 3,
      "<|assistant|>": 4,
      "!": 5,
      "\"": 6,
      "#": 7,
      "$": 8,
      "%": 9,
      "&": 10,
      "'": 11,
      "(": 12,
      ")": 13,
      "*": 14,
      "+": 15,
      ",": 16,
      "-": 17,
      ".": 18,
      "/": 19,
      "0": 20,
      "1": 21,
      "2": 22,
      "3": 23,
      "4": 24,
      "5": 25,
      "6": 26,
      "7": 27,
      "8": 28,
      "9": 29,
      ":": 30,
      ";": 31,
      "<": 32,
      "=": 33,
      ">": 34,
      "?": 35,
      "@": 36,
      "A": 37,
      "B": 38,
      "C": 39,
      "D": 40,
      "E": 41,
      "F": 42,
      "G": 43,
      "H": 44,
      "I": 45,
      "J": 46,
      "K": 47,
      "L": 48,
      "M": 49,
      "N": 50,
      "O": 51,
      "P": 52,
      "Q": 53,
      "R": 54,
      "S": 55,
      "T": 56,
      "U": 57,
      "V": 58,
      "W": 59,
      "X": 60,
      "Y": 61,
      "Z": 62,
      "[": 63,
      "\\": 64,
      "]": 65,
      "^": 66,
      "_": 67,
      "`": 68,
      "a": 69,
      "b": 70,
      "c": 71,
      "d": 72,
      "e": 73,
      "f": 74,
      "g": 75,
      "h": 76,
      "i": 77,
      "j": 78,
      "k": 79,
      "l": 80,
      "m": 81,
      "n": 82,
      "o": 83,
      "p": 84,
      "q": 85,
      "r": 86,
      "s": 87,
      "t": 88,
      "u": 89,
      "v": 90,
      "w": 91,
      "x": 92,
      "y": 93,
      "z": 94,
      "{": 95,
      "|": 96,
      "}": 97,
      "~": 98,
      "¡": 99,
      "¢": 100,
      "£": 101,
      "¤": 102,
      "¥": 103,
      "¦": 104,
      "§": 105,
      "¨": 106,
      "©": 107,
      "ª": 108,
      "«": 109,
      "¬": 110,
      "®": 111,
      "¯": 112,
      "°": 113,
      "±": 114,
      "²": 115,
      "³": 116,
      "´": 117,
      "µ": 118,
      "¶": 119,
      "·": 120,
      "¸": 121,
      "¹": 122,
      "º": 123,
      "»": 124,
      "¼": 125,
      "½": 126,
      "¾": 127,
      "¿": 128,
      "À": 129,
      "Á": 130,
      "Â": 131,
      "Ã": 132,
      "Ä": 133,
      "Å": 134,
      "Æ": 135,
      "Ç": 136,
      "È": 137,
      "É": 138,
      "Ê": 139,
      "Ë": 140,
      "Ì": 141,
      "Í": 142,
      "Î": 143,
      "Ï": 144,
      "Ð": 145,
      "Ñ": 146,
      "Ò": 147,
      "Ó": 148,
      "Ô": 149,
      "Õ": 150,
      "Ö": 151,
      "×": 152,
      "Ø": 153,
      "Ù": 154,
      "Ú": 155,
      "Û": 156,
      "Ü": 157,
      "Ý": 158,
      "Þ": 159,
      "ß": 160,
      "à": 161,
      "á": 162,
      "â": 163,
      "ã": 164,
      "ä": 165,
      "å": 166,
      "æ": 167,
      "ç": 168,
      "è": 169,
      "é": 170,
      "ê": 171,
      "ë": 172,
      "ì": 173,
      "í": 174,
      "î": 175,
      "ï": 176,
      "ð": 177,
      "ñ": 178,
      "ò": 179,
      "ó": 180,
      "ô": 181,
      "õ": 182,
      "ö": 183,
      "÷": 184,
      "ø": 185,
      "ù": 186,
      "ú": 187,
      "û": 188,
      "ü": 189,
      "ý": 190,
      "þ": 191,
      "ÿ": 192,
      "Ā": 193,
      "ā": 194,
      "Ă": 195,
      "ă": 196,
      "Ą": 197,
      "ą": 198,
      "Ć": 199,
      "ć": 200,
      "Ĉ": 201,
      "ĉ": 202,
      "Ċ": 203,
      "ċ": 204,
      "Č": 205,
      "č": 206,
      "Ď": 207,
      "ď": 208,
      "Đ": 209,
      "đ": 210,
      "Ē": 211,
      "ē": 212,
      "Ĕ": 213,
      "ĕ": 214,
      "Ė": 215,
      "ė": 216,
      "Ę": 217,
      "ę": 218,
      "Ě": 219,
      "ě": 220,
      "Ĝ": 221,
      "ĝ": 222,
      "Ğ": 223,
      "ğ": 224,
      "Ġ": 225,
      "ġ": 226,
      "Ģ": 227,
      "ģ": 228,
      "Ĥ": 229,
      "ĥ": 230,
      "Ħ": 231,
      "ħ": 232,
      "Ĩ": 233,
      "ĩ": 234,
      "Ī": 235,
      "ī": 236,
      "Ĭ": 237,
      "ĭ": 238,
      "Į": 239,
      "į": 240,
      "İ": 241,
      "ı": 242,
      "Ĳ": 243,
      "ĳ": 244,
      "Ĵ": 245,
      "ĵ": 246,
      "Ķ": 247,
      "ķ": 248,
      "ĸ": 249,
      "Ĺ": 250,
      "ĺ": 251,
      "Ļ": 252,
      "ļ": 253,
      "Ľ": 254,
      "ľ": 255,
      "Ŀ": 256,
      "ŀ": 257,
      "Ł": 258,
      "ł": 259,
      "Ń": 260,
      "ï¼": 261,
      "ï¼Į": 262,
      "ä¸": 263,
      "çļ": 264,
      "çļĦ": 265,
      "äº": 266,
      "æĺ": 267,
      "æĺ¯": 268,
      "è¿": 269,
      "å¤": 270,
      "âĢ": 271,
      "ä¹": 272,
      "ä¸Ģ": 273,
      "ä»": 274,
      "ãĢ": 275,
      "ãĢĤ": 276,
      "åľ": 277,
      "æľ": 278,
      "åĬ": 279,
      "åı": 280,
      "åħ": 281,
      "åĲ": 282,
      "äºĨ": 283,
      "èĢ": 284,
      "å°": 285,
      "ä½": 286,
      "æĹ": 287,
      "éĤ": 288,
      "ä¸į": 289,
      "è¿Ļ": 290,
      "éĤ£": 291,
      "ĿĢ": 292,
      "åĩ": 293,
      "åľ¨": 294,
      "çĤ": 295,
      "çĿĢ": 296,
      "æī": 297,
      "å¾": 298,
      "åĪ": 299,
      "åį": 300,
      "çĦ": 301,
      "âĢĿ": 302,
      "âĢľ": 303,
      "éģ": 304,
      "å®": 305,
      "æŀ": 306,
      "æĿ": 307,
      "å¼": 308,
      "çĦ¶": 309,
      "çľ": 310,
      "éģĵ": 311,
      "æľī": 312,
      "ä¹ĭ": 313,
      "ä»ĸ": 314,
      "åĬ¨": 315,
      "èĲ": 316,
      "äºº": 317,
      "èĢĮ": 318,
      "ä¸Ń": 319,
      "ĥ½": 320,
      "ä¹Ł": 321,
      "æĪ": 322,
      "ä¼": 323,
      "æĿ¥": 324,
      "éĹ": 325,
      "åĨ": 326,
      "åĩº": 327,
      "çĤİ": 328,
      "ĠâĢľ": 329,
      "æŃ": 330,
      "çĽ": 331,
      "èĲ§": 332,
      "è¯": 333,
      "æĸ": 334,
      "å¿": 335,
      "èĲ§çĤİ": 336,
      "æŀĹ": 337,
      "çİ": 338,
      "å½": 339,
      "ä¸Ĭ": 340,
      "éĿ": 341,
      "ä¾": 342,
      "å¾Ĺ": 343,
      "åĲİ": 344,
      "ç¬": 345,
      "å¯": 346,
      "çļĦæ": 347,
      "ç»": 348,
      "å¹": 349,
      "åº": 350,
      "è§": 351,
      "èº": 352,
      "å¤§": 353,
      "èµ": 354,
      "å¦": 355,
      "éĩ": 356,
      "äºĽ": 357,
      "èº«": 358,
      "æĢ": 359,
      "çģ": 360,
      "æĹ¶": 361,
      "åĪ°": 362,
      "æİ": 363,
      "ä¾¿": 364,
      "åİ": 365,
      "æŀĹåĬ¨": 366,
      "ä¸ĭ": 367,
      "å¤©": 368,
      "åĽ": 369,
      "å¥": 370,
      "æĥ": 371,
      "èĥ½": 372,
      "ä¹Łæĺ¯": 373,
      "è¿ĩ": 374,
      "æīĭ": 375,
      "åĬĽ": 376,
      "çĶ": 377,
      "è½": 378,
      "å£": 379,
      "åħī": 380,
      "å·": 381,
      "æ²": 382,
      "æĬ": 383,
      "ç§": 384,
      "å¤´": 385,
      "ï¼ģ": 386,
      "æķ": 387,
      "å£°": 388,
      "å¸": 389,
      "ä¾¿æĺ¯": 390,
      "æ°": 391,
      "éĹ´": 392,
      "èĩ": 393,
      "éĢ": 394,
      "å¯¹": 395,
      "å¦Ĥ": 396,
      "ä¸º": 397,
      "ç¬ĳ": 398,
      "ä½ł": 399,
      "åŃ": 400,
      "æĪĳ": 401,
      "èī": 402,
      "è®": 403,
      "èĦ": 404,
      "åľ°": 405,
      "ç«": 406,
      "è¡": 407,
      "ç¼": 408,
      "èī²": 409,
      "å±": 410,
      "éĥ½": 411,
      "ä»¬": 412,
      "å°ı": 413,
      "èĪ": 414,
      "åī": 415,
      "çľ¼": 416,
      "å¿ĥ": 417,
      "éļ": 418,
      "èµ·": 419,
      "æĦ": 420,
      "å°Ĩ": 421,
      "ãĢĤâĢĿ": 422,
      "å¾®": 423,
      "æ°Ķ": 424,
      "çº": 425,
      "âĢ¦": 426,
      "éĺ": 427,
      "æŃ¤": 428,
      "ç©": 429,
      "ä¼ļ": 430,
      "çĭ": 431,
      "çİ°": 432,
      "éĿ¢": 433,
      "ä¸ª": 434,
      "åĳ": 435,
      "åħ¶": 436,
      "èĢģ": 437,
      "ç§į": 438,
      "èĪ¬": 439,
      "è¢": 440,
      "äºĨä¸Ģ": 441,
      "èĢħ": 442,
      "æĭ": 443,
      "æ¯": 444,
      "æµ": 445,
      "ï¼Ł": 446,
      "å¼º": 447,
      "é»": 448,
      "èĭ": 449,
      "åı¯": 450,
      "ä»¥": 451,
      "çŁ": 452,
      "æīĢ": 453,
      "æ¶": 454,
      "çģ«": 455,
      "èį": 456,
      "æ³": 457,
      "éŃ": 458,
      "è¦": 459,
      "åİ»": 460,
      "ä½ĵ": 461,
      "è¦ģ": 462,
      "ä¹Ī": 463,
      "çĤ¹": 464,
      "éĽ": 465,
      "çľĭ": 466,
      "åį´": 467,
      "åĵ": 468,
      "æĹł": 469,
      "çĽ®": 470,
      "åĢ": 471,
      "çī": 472,
      "æ·": 473,
      "åīį": 474,
      "è¿ĺ": 475,
      "èĩª": 476,
      "æģ": 477,
      "éĻ": 478,
      "æ¬": 479,
      "å°±": 480,
      "æĸĹ": 481,
      "ç¥": 482,
      "åĮ": 483,
      "åį³": 484,
      "æĮ": 485,
      "æľīçĿĢ": 486,
      "æľĽ": 487,
      "ç¼ĵ": 488,
      "éľ": 489,
      "åŃĲ": 490,
      "Ļ½": 491,
      "è¯´": 492,
      "æ²¡": 493,
      "ç©º": 494,
      "è§ģ": 495,
      "ä¸İ": 496,
      "é»ĳ": 497,
      "æł": 498,
      "å¼Ģ": 499,
      "ï¼ģâĢĿ": 500,
      "å¤ļ": 501,
      "æĸ¹": 502,
      "å½ĵ": 503,
      "æĥ³": 504,
      "åıª": 505,
      "éĥ½æĺ¯": 506,
      "äºİ": 507,
      "çļĦç": 508,
      "ä»ĸä»¬": 509,
      "åĨħ": 510,
      "é¡": 511,
      "è¢«": 512,
      "æ¸": 513,
      "å¤Ł": 514,
      "çĽ®åħī": 515,
      "æļ": 516,
      "é£": 517,
      "èį¯": 518,
      "èĦ¸": 519,
      "çķ": 520,
      "å®¶": 521,
      "æľĢ": 522,
      "æĪĲ": 523,
      "åį´æĺ¯": 524,
      "è¯Ŀ": 525,
      "è½»": 526,
      "ä¸ī": 527,
      "ä¸¤": 528,
      "å¤Ħ": 529,
      "èĥ½å¤Ł": 530,
      "çŃ": 531,
      "ï¼ļ": 532,
      "å¹´": 533,
      "åĨį": 534,
      "ä½Ĩ": 535,
      "æľīäºĽ": 536,
      "ä¿": 537,
      "åĸ": 538,
      "éķ": 539,
      "æľĽçĿĢ": 540,
      "ç¥ŀ": 541,
      "ä¸įè¿ĩ": 542,
      "ï¼ļâĢľ": 543,
      "é¢": 544,
      "åĺ": 545,
      "ç´": 546,
      "æĶ": 547,
      "å®ŀ": 548,
      "æĹĭ": 549,
      "èĤ": 550,
      "å¹¶": 551,
      "è¶": 552,
      "ï¼ŁâĢĿ": 553,
      "è¾": 554,
      "ç«Ł": 555,
      "æĽ": 556,
      "ä¹ĭä¸Ń": 557,
      "éĩı": 558,
      "æ®": 559,
      "åı¤": 560,
      "å½±": 561,
      "çŃī": 562,
      "ç®": 563,
      "è·": 564,
      "ä¸Ģéģĵ": 565,
      "ä»İ": 566,
      "çĶŁ": 567,
      "å¥½": 568,
      "æŀģ": 569,
      "åº¦": 570,
      "çĤ¼": 571,
      "è¿Ľ": 572,
      "éķ¿": 573,
      "çł": 574,
      "å¼Ĥ": 575,
      "çģµ": 576,
      "åĴ": 577,
      "åıĺ": 578,
      "æĹı": 579,
      "å·²": 580,
      "çľŁ": 581,
      "è¡Ģ": 582,
      "çĥ": 583,
      "¥æĺ¯": 584,
      "å®Ĺ": 585,
      "æ·¡": 586,
      "æ¬¡": 587,
      "è®©": 588,
      "æİĮ": 589,
      "å±±": 590,
      "è°": 591,
      "æĹĭåį³": 592,
      "åķ": 593,
      "å°ĳ": 594,
      "éĿĴ": 595,
      "éĩį": 596,
      "éĽ·": 597,
      "åħĥ": 598,
      "éŁ": 599,
      "åĲį": 600,
      "çĽ´": 601,
      "éª": 602,
      "å¼ºèĢħ": 603,
      "çŁ¥": 604,
      "åŁ": 605,
      "æķ°": 606,
      "çª": 607,
      "åĮĸ": 608,
      "ä½į": 609,
      "è´": 610,
      "åĿ": 611,
      "éŃĶ": 612,
      "åĲĮ": 613,
      "çŀ": 614,
      "èİ": 615,
      "èĢĮåĩº": 616,
      "äºĭ": 617,
      "çİ°åľ¨": 618,
      "ä¸¹": 619,
      "æĦı": 620,
      "çĬ": 621,
      "æīį": 622,
      "åģ": 623,
      "ä¹ĭä¸Ĭ": 624,
      "åĩł": 625,
      "åįģ": 626,
      "èĲ½": 627,
      "æĦŁ": 628,
      "æļ´": 629,
      "æĤ": 630,
      "åĢĴ": 631,
      "ä»Ģ": 632,
      "åºŀ": 633,
      "ĠĊ": 634,
      "èĬ": 635,
      "æĢķ": 636,
      "ä»Ģä¹Ī": 637,
      "ç»ı": 638,
      "åħ¥": 639,
      "æ²¡æľī": 640,
      "åı£": 641,
      "è¿ľ": 642,
      "çĦ¶åĲİ": 643,
      "æ»": 644,
      "æĳ": 645,
      "åºĶ": 646,
      "å¢": 647,
      "éŃĤ": 648,
      "æ´": 649,
      "è¿Ļç§į": 650,
      "ç½": 651,
      "å½¢": 652,
      "çĻ½": 653,
      "åĪ»": 654,
      "æł·": 655,
      "æĥĬ": 656,
      "éĩĮ": 657,
      "çĭł": 658,
      "å¥¹": 659,
      "çĮ": 660,
      "æ¼": 661,
      "ä»Ĭ": 662,
      "å®ŀåĬĽ": 663,
      "çīĩ": 664,
      "é£İ": 665,
      "å¯¹çĿĢ": 666,
      "çĪ": 667,
      "æĺ¾": 668,
      "åĲ§": 669,
      "çİĭ": 670,
      "èµ·æĿ¥": 671,
      "ä¹İ": 672,
      "åľº": 673,
      "âĢ¦âĢ¦": 674,
      "æĻ": 675,
      "éĹª": 676,
      "åĽł": 677,
      "æı": 678,
      "ç¬¬": 679,
      "æģĲ": 680,
      "åĨ·": 681,
      "éļ¾": 682,
      "æİ¥": 683,
      "å²": 684,
      "æ³ķ": 685,
      "æĹ¶éĹ´": 686,
      "çªģ": 687,
      "ä¸ĢäºĽ": 688,
      "ç¼ĵç¼ĵ": 689,
      "èĻ½": 690,
      "åĽŀ": 691,
      "æŃ£": 692,
      "èº«ä½ĵ": 693,
      "æŁ": 694,
      "ç®Ĺ": 695,
      "æŃ¥": 696,
      "åĲĳ": 697,
      "çĽ¸": 698,
      "è½¬": 699,
      "å·¨": 700,
      "éĵ": 701,
      "é¾": 702,
      "èĥ": 703,
      "æĪĺ": 704,
      "ĠæŀĹåĬ¨": 705,
      "æ¯Ķ": 706,
      "çļĦè¯Ŀ": 707,
      "äºĳ": 708,
      "é¡¿": 709,
      "å¾®å¾®": 710,
      "æ²ī": 711,
      "è®¸": 712,
      "æľ¬": 713,
      "åĩºæĿ¥": 714,
      "åħĪ": 715,
      "éļĲ": 716,
      "å¤ĸ": 717,
      "çŁ¥éģĵ": 718,
      "éŁ³": 719,
      "éļı": 720,
      "è¿ĻäºĽ": 721,
      "åįĬ": 722,
      "ç´§": 723,
      "èĤ¡": 724,
      "æİł": 725,
      "éĶ": 726,
      "æľĢåĲİ": 727,
      "æľª": 728,
      "æŃ»": 729,
      "è§ī": 730,
      "çŁ³": 731,
      "èĭ¥æĺ¯": 732,
      "è£": 733,
      "é¾Ļ": 734,
      "å¦ĸ": 735,
      "èĻ": 736,
      "æ¶Į": 737,
      "åıĳ": 738,
      "æ¸ħ": 739,
      "åĩĿ": 740,
      "åĬ¿": 741,
      "è§ģåĪ°": 742,
      "åľ¨éĤ£": 743,
      "å¸Ī": 744,
      "ä¼ł": 745,
      "ä½ķ": 746,
      "ä¸Ģä¸ª": 747,
      "åĽĽ": 748,
      "æĹ¥": 749,
      "å¿ĥä¸Ń": 750,
      "çĦ¶æĺ¯": 751,
      "å§": 752,
      "æ®¿": 753,
      "èģ": 754,
      "èµ°": 755,
      "ç¾": 756,
      "ä¸ľ": 757,
      "åľ¨è¿Ļ": 758,
      "èĩ³": 759,
      "çĸ": 760,
      "è¿ŀ": 761,
      "åĵį": 762,
      "éľĩ": 763,
      "çĮĽ": 764,
      "è§Ĩ": 765,
      "ä½ı": 766,
      "éĹ¨": 767,
      "çł´": 768,
      "åĩ»": 769,
      "ä¼¼": 770,
      "å¤ª": 771,
      "çº¢": 772,
      "å¤§çļĦ": 773,
      "åıĮ": 774,
      "ä¸Ŀ": 775,
      "ç¿": 776,
      "æŀľ": 777,
      "ä½ĵåĨħ": 778,
      "çĻ": 779,
      "ä¼Ļ": 780,
      "äºĮ": 781,
      "å¥³": 782,
      "åĲ¬": 783,
      "éĤ£äºĽ": 784,
      "çļĦäºº": 785,
      "æĽ´": 786,
      "è¡Į": 787,
      "ä¸»": 788,
      "å®¶ä¼Ļ": 789,
      "ä¿®": 790,
      "çĤ¹å¤´": 791,
      "çªģçĦ¶": 792,
      "åķĬ": 793,
      "..": 794,
      "ä¸ĢæĬ": 795,
      "çĻ¾": 796,
      "åĪļ": 797,
      "åĬł": 798,
      "å¢ĥ": 799,
      "ç»Ļ": 800,
      "æķ£": 801,
      "ä»¤": 802,
      "åĺ´": 803,
      "éĺ´": 804,
      "éĺµ": 805,
      "ä¸Ķ": 806,
      "çİĦ": 807,
      "æģ¯": 808,
      "æīĵ": 809,
      "é¡¿æĹ¶": 810,
      "ä»ĸçļĦ": 811,
      "åĶ": 812,
      "åĨ²": 813,
      "¨Ģ": 814,
      "èĥ½éĩı": 815,
      "ç¬ĳéģĵ": 816,
      "åĪĨ": 817,
      "çķ¥": 818,
      "æ³¢": 819,
      "è¿Ļä¸Ģ": 820,
      "çĬ¹": 821,
      "ç²": 822,
      "çĭĤ": 823,
      "ä»ħ": 824,
      "çĦ°": 825,
      "ä¸ĢèĪ¬": 826,
      "å£°éŁ³": 827,
      "åĳ¨": 828,
      "ä½İ": 829,
      "ç¬¦": 830,
      "å¯¹äºİ": 831,
      "éĩĳ": 832,
      "èħ": 833,
      "é«": 834,
      "èĦ¸åºŀ": 835,
      "çļĦéģĵ": 836,
      "æīĭæİĮ": 837,
      "æĺİ": 838,
      "éĿĻ": 839,
      "æ·±": 840,
      "åĹ": 841,
      "è½°": 842,
      "å°½": 843,
      "çĲ": 844,
      "ä¸įæĺ¯": 845,
      "è¿ĻèĪ¬": 846,
      "è®©å¾Ĺ": 847,
      "å¦Ĥä»Ĭ": 848,
      "çĶ¨": 849,
      "åĦ": 850,
      "å¤±": 851,
      "éķ¿èĢģ": 852,
      "åĻ": 853,
      "æĪĳä»¬": 854,
      "çľ¼ä¸Ń": 855,
      "è¶Ĭ": 856,
      "çģ«çĦ°": 857,
      "çļĦä¸Ģ": 858,
      "ç©ºéĹ´": 859,
      "é«ĺ": 860,
      "¥¿": 861,
      "å®¹": 862,
      "è¿Ļä¸ª": 863,
      "æŀģä¸º": 864,
      "åºķ": 865,
      "è¥¿": 866,
      "æ¨": 867,
      "åĤ": 868,
      "æĹģ": 869,
      "å¸¦": 870,
      "ç»Ī": 871,
      "æĴ": 872,
      "ç¢": 873,
      "å¾Ī": 874,
      "çĬ¹å¦Ĥ": 875,
      "çĽĺ": 876,
      "æĮĩ": 877,
      "ä¸ĭæĿ¥": 878,
      "è¨Ģ": 879,
      "åįĥ": 880,
      "æĥħ": 881,
      "æ»¡": 882,
      "æģĲæĢķ": 883,
      "èĪ¬çļĦ": 884,
      "èĬĴ": 885,
      "æĿĢ": 886,
      "èĻ½çĦ¶": 887,
      "å¤©ç©º": 888,
      "éĿ¢èī²": 889,
      "å®ļ": 890,
      "åŁİ": 891,
      "å¨": 892,
      "æĳĩ": 893,
      "åį°": 894,
      "æľĽçĿĢéĤ£": 895,
      "åĽłä¸º": 896,
      "ä¾Ŀ": 897,
      "åħ½": 898,
      "ç«ŁçĦ¶": 899,
      "è£Ĥ": 900,
      "éĥ": 901,
      "åĳµ": 902,
      "ä¼Ĺ": 903,
      "çĪĨ": 904,
      "åıĬ": 905,
      "å¦ĤæŃ¤": 906,
      "æµ·": 907,
      "æīĭä¸Ń": 908,
      "æħ": 909,
      "å½»": 910,
      "åİī": 911,
      "ç¦": 912,
      "åĢĻ": 913,
      "å·²ç»ı": 914,
      "èº«å½¢": 915,
      "å¿ħ": 916,
      "åĢĴæĺ¯": 917,
      "èº«å½±": 918,
      "ä¹Ŀ": 919,
      "å·±": 920,
      "äºĶ": 921,
      "éļıçĿĢ": 922,
      "å¿«": 923,
      "åĩºçİ°": 924,
      "åĨ°": 925,
      "åĦ¿": 926,
      "åĬĽéĩı": 927,
      "ä¸ĢæĬ¹": 928,
      "æ£": 929,
      "åĨįåº¦": 930,
      "æ¯«": 931,
      "éĢĢ": 932,
      "åħ¨": 933,
      "èĽ": 934,
      "çº§": 935,
      "Ġåľ¨": 936,
      "äº¤": 937,
      "åıĹ": 938,
      "åĲŀ": 939,
      "æ¬¢": 940,
      "æĸĹæ°Ķ": 941,
      "çľī": 942,
      "æĸ¹æīį": 943,
      "èĢĮä¸Ķ": 944,
      "ä¸ľè¥¿": 945,
      "æļĹ": 946,
      "è²": 947,
      "æĹ¶åĢĻ": 948,
      "èĭį": 949,
      "èĩªå·±": 950,
      "å¯Ĵ": 951,
      "ä¸Ģç§į": 952,
      "âĢĻ": 953,
      "çļĦéĤ£": 954,
      "ç¨": 955,
      "ä¹Łä¸į": 956,
      "åĽ´": 957,
      "æ±": 958,
      "åŁŁ": 959,
      "æĶ¾": 960,
      "ç¾İ": 961,
      "åĪ«": 962,
      "ä»¤å¾Ĺ": 963,
      "é£ŀ": 964,
      "è¶³": 965,
      "æ¶Ī": 966,
      "çĶ±": 967,
      "çŃīäºº": 968,
      "åİĭ": 969,
      "æĶ¶": 970,
      "åĲ¸": 971,
      "æŃ¦": 972,
      "ä¸ĢèĤ¡": 973,
      "éĢļ": 974,
      "èĦļ": 975,
      "å®Į": 976,
      "çİī": 977,
      "è±": 978,
      "éª¨": 979,
      "ç¦»": 980,
      "æĢ¥": 981,
      "å°Ħ": 982,
      "éĢĲ": 983,
      "ç«ł": 984,
      "èģļ": 985,
      "ĠèĢĮ": 986,
      "åĪ°äºĨ": 987,
      "åıªæĺ¯": 988,
      "ç´«": 989,
      "æĸŃ": 990,
      "ä¿®çĤ¼": 991,
      "æĺŁ": 992,
      "æį": 993,
      "ä¼¼ä¹İ": 994,
      "å°Ĭ": 995,
      "ĠèĲ§çĤİ": 996,
      "åĪ¶": 997,
      "èĢĮåİ»": 998,
      "è¯¥": 999,
      "å¸Ŀ": 1000,
      "è¿ĳ": 1001,
      "çĿ": 1002,
      "æ¸Ĳ": 1003,
      "çī©": 1004,
      "è§Ĵ": 1005,
      "éĿ¢åīį": 1006,
      "¯çĿĢ": 1007,
      "ä¸įå°ĳ": 1008,
      "èĭ¥": 1009,
      "åĸĿ": 1010,
      "è¿ĺæĺ¯": 1011,
      "éĴ": 1012,
      "å¹³": 1013,
      "åĮĸä¸º": 1014,
      "å¸¸": 1015,
      "èĻļ": 1016,
      "æ·¡æ·¡": 1017,
      "éĹ»": 1018,
      "å¼Ł": 1019,
      "éĢĲæ¸Ĳ": 1020,
      "èį¯èĢģ": 1021,
      "ä¸Ģç¬ĳ": 1022,
      "æŃ¤æĹ¶": 1023,
      "åıĪ": 1024,
      "ä¹ĭåĲİ": 1025,
      "æµ®": 1026,
      "ç²¾": 1027,
      "çº¿": 1028,
      "åıį": 1029,
      "å¥ĩ": 1030,
      "å£°éģĵ": 1031,
      "è¢į": 1032,
      "ç«ĭ": 1033,
      "äºĨä¸Ģåı£": 1034,
      "åħĥåĬĽ": 1035,
      "äººçļĦ": 1036,
      "æĥ³è¦ģ": 1037,
      "çģµéŃĤ": 1038,
      "éĢŁ": 1039,
      "èĸ": 1040,
      "æĢİ": 1041,
      "çĤ¹äºĨ": 1042,
      "ç®Ĺæĺ¯": 1043,
      "çĭłçĭł": 1044,
      "çķĻ": 1045,
      "éĤ£ç§į": 1046,
      "çĽ¯çĿĢ": 1047,
      "è¿ħ": 1048,
      "æĭ³": 1049,
      "æ¼«": 1050,
      "æķ¢": 1051,
      "åıĺå¾Ĺ": 1052,
      "¡®": 1053,
      "æı¡": 1054,
      "åħ¶ä¸Ń": 1055,
      "æīĢä»¥": 1056,
      "ä½łä»¬": 1057,
      "å®ĥ": 1058,
      "åħ«": 1059,
      "æŃ¤åĪ»": 1060,
      "ä¸ĩ": 1061,
      "å¾ħ": 1062,
      "å±Ĥ": 1063,
      "çĤ¹äºĨçĤ¹å¤´": 1064,
      "è¸": 1065,
      "æī«": 1066,
      "ä¸įä¼ļ": 1067,
      "å²©": 1068,
      "å³": 1069,
      "ä»¥åıĬ": 1070,
      "åħĪåīį": 1071,
      "æĮģ": 1072,
      "åĲİèĢħ": 1073,
      "å¦ĤåĲĮ": 1074,
      "è¡£": 1075,
      "çļ±": 1076,
      "æķ´": 1077,
      "Łè§ī": 1078,
      "åĩºçİ°åľ¨": 1079,
      "éĿŀ": 1080,
      "è¾¾": 1081,
      "å§ĭ": 1082,
      "å¤©åľ°": 1083,
      "çļĦå¼ºèĢħ": 1084,
      "ä¼¤": 1085,
      "çĦ¶èĢĮ": 1086,
      "æº": 1087,
      "èİ²": 1088,
      "åĻ¬": 1089,
      "åİŁ": 1090,
      "æĪĸ": 1091,
      "ä¸įä½ı": 1092,
      "æĺ¾çĦ¶": 1093,
      "å¼ł": 1094,
      "å¿į": 1095,
      "ä¸ĬçļĦ": 1096,
      "æĢĴ": 1097,
      "è²Ĥ": 1098,
      "åŃ¦": 1099,
      "å¡": 1100,
      "å·²æĺ¯": 1101,
      "å¿Ļ": 1102,
      "æĢĸ": 1103,
      "å¹¶ä¸į": 1104,
      "éĹ»è¨Ģ": 1105,
      "åĩĮ": 1106,
      "æľĿ": 1107,
      "âĢ¦âĢ¦âĢĿ": 1108,
      "é¼": 1109,
      "âĢ¦âĢĿ": 1110,
      "èĦ¸èī²": 1111,
      "æĹłæķ°": 1112,
      "æĮ¥": 1113,
      "çļĦçĽ®åħī": 1114,
      "çļĦå®ŀåĬĽ": 1115,
      "åĩ¶": 1116,
      "çĽ´æİ¥": 1117,
      "ç¬¬ä¸Ģ": 1118,
      "çĸĳ": 1119,
      "è¿ĻéĩĮ": 1120,
      "åĽ¢": 1121,
      "ä¸ĥ": 1122,
      "åĩłä¹İ": 1123,
      "èĦī": 1124,
      "ç»Īäºİ": 1125,
      "æľĪ": 1126,
      "å¼±": 1127,
      "ä¸¤äºº": 1128,
      "ç»Ŀ": 1129,
      "æĿ¥çļĦ": 1130,
      "ä¹ĭèī²": 1131,
      "å³°": 1132,
      "æıĲ": 1133,
      "éĻ¢": 1134,
      "çľ¸": 1135,
      "èħ¾": 1136,
      "åĲ¬å¾Ĺ": 1137,
      "é»ĳèī²": 1138,
      "æīĢæľī": 1139,
      "¡çĦ¶": 1140,
      "ä¹ĭåĨħ": 1141,
      "çļĦæĦ": 1142,
      "åĤĢ": 1143,
      "è¿Ľåħ¥": 1144,
      "åģļ": 1145,
      "èįĴ": 1146,
      "çº³": 1147,
      "ä»Ļ": 1148,
      "æ°´": 1149,
      "æĥ³åĪ°": 1150,
      "æĽ¾": 1151,
      "æ¯ķ": 1152,
      "åĩºæīĭ": 1153,
      "æ´ŀ": 1154,
      "ä¸Ŀæ¯«": 1155,
      "èĭ¦": 1156,
      "ç»Ĩ": 1157,
      "æ¥": 1158,
      "èĢĮå¼Ģ": 1159,
      "ç¥ĸ": 1160,
      "é¡¶": 1161,
      "éĻ¡çĦ¶": 1162,
      "ç«Łæĺ¯": 1163,
      "åħ³": 1164,
      "ä½ľ": 1165,
      "æ£®": 1166,
      "åĬŁ": 1167,
      "å¨ģ": 1168,
      "ä¸įæĸŃ": 1169,
      "å°ĸ": 1170,
      "å±ħ": 1171,
      "çŀ¬": 1172,
      "çļĦåľ°": 1173,
      "äºĨä¸Ģä¸ĭ": 1174,
      "äºĨä¸Ģåı£æ°Ķ": 1175,
      "çļĨ": 1176,
      "å®ī": 1177,
      "äºĨèµ·æĿ¥": 1178,
      "çľŁæĺ¯": 1179,
      "çĶļ": 1180,
      "åĴĮ": 1181,
      "æĭ¥": 1182,
      "ä»»": 1183,
      "åĽłæŃ¤": 1184,
      "å±ķ": 1185,
      "æ®µ": 1186,
      "é©": 1187,
      "çĤ¼èį¯": 1188,
      "å¯»": 1189,
      "åı¹": 1190,
      "åį³ä¾¿æĺ¯": 1191,
      "çļĦæ¶": 1192,
      "æĭį": 1193,
      "æĬ¬": 1194,
      "åľ¨åħ¶": 1195,
      "æİ¥æĺ¯": 1196,
      "åĳ¼": 1197,
      "èĽĩ": 1198,
      "çļĦç¡®": 1199,
      "çĽ´æİ¥æĺ¯": 1200,
      "éĢł": 1201,
      "æµģ": 1202,
      "ãĢĤâĢľ": 1203,
      "è·Ł": 1204,
      "è°ģ": 1205,
      "å¼¥": 1206,
      "åıĸ": 1207,
      "åģľ": 1208,
      "æ¨¡": 1209,
      "çļĦæ³": 1210,
      "æĢİä¹Ī": 1211,
      "çľĭæĿ¥": 1212,
      "åºĶè¯¥": 1213,
      "åį·": 1214,
      "åĵįèµ·": 1215,
      "è§£": 1216,
      "æĢª": 1217,
      "æĲ": 1218,
      "å¹ķ": 1219,
      "ä¸Ģéģĵéģĵ": 1220,
      "ä¹ħ": 1221,
      "åĲĪ": 1222,
      "å¼Ģå§ĭ": 1223,
      "æ¯Ĵ": 1224,
      "æ¶ħ": 1225,
      "åĲŀåĻ¬": 1226,
      "èİ«": 1227,
      "åĿĲ": 1228,
      "çļĨæĺ¯": 1229,
      "å½»åºķ": 1230,
      "ç¿¼": 1231,
      "èĢĮåĲİ": 1232,
      "éº": 1233,
      "çļĩ": 1234,
      "çľ¼ç¥ŀ": 1235,
      "è·¯": 1236,
      "åĬ²": 1237,
      "çĹ": 1238,
      "åĸľ": 1239,
      "åº§": 1240,
      "åĳ¨åĽ´": 1241,
      "é¢ĩ": 1242,
      "å»": 1243,
      "çħ": 1244,
      "æĪĸè®¸": 1245,
      "å¼¥æ¼«": 1246,
      "ä¸Ģå£°": 1247,
      "æĳĩå¤´": 1248,
      "çķ¥å¾®": 1249,
      "åĳ½": 1250,
      "åĩĿèģļ": 1251,
      "æĿ¡": 1252,
      "çĥŃ": 1253,
      "çĶ·": 1254,
      "åı¯èĥ½": 1255,
      "æµĵ": 1256,
      "çļĦäºĭ": 1257,
      "éĹ®": 1258,
      "èĸ°": 1259,
      "éĵģ": 1260,
      "è´¥": 1261,
      "çĬ¶": 1262,
      "æĦŁè§ī": 1263,
      "ç»Ń": 1264,
      "èĸ°åĦ¿": 1265,
      "å¹¶æ²¡æľī": 1266,
      "è¯Ń": 1267,
      "åľ£": 1268,
      "ä¹ĭåĬĽ": 1269,
      "æ³¢åĬ¨": 1270,
      "å¿įä¸įä½ı": 1271,
      "åı°": 1272,
      "è¿Ļä¹Ī": 1273,
      "éº»": 1274,
      "çĮĽçĦ¶": 1275,
      "èĻ½è¯´": 1276,
      "ä¸ĢåĲį": 1277,
      "åįĩ": 1278,
      "çİĭæľĿ": 1279,
      "ä»¿": 1280,
      "çŁŃ": 1281,
      "æł¼": 1282,
      "éľĢ": 1283,
      "åĸĥ": 1284,
      "æģĲæĢĸ": 1285,
      "ç±": 1286,
      "å¹²": 1287,
      "åĺ¿": 1288,
      "çľŁæŃ£": 1289,
      "æī¾": 1290,
      "æĶ»": 1291,
      "çĶļèĩ³": 1292,
      "ä¸īäºº": 1293,
      "å¼Ĥçģ«": 1294,
      "çļĦå£°éŁ³": 1295,
      "ä½Ľ": 1296,
      "åĪĻ": 1297,
      "çļĦæ°": 1298,
      "ç»ĵ": 1299,
      "åĬ¿åĬĽ": 1300,
      "åıªèĥ½": 1301,
      "ç»Īäºİæĺ¯": 1302,
      "è¡¨": 1303,
      "é²": 1304,
      "åħŃ": 1305,
      "éĶĻ": 1306,
      "çŀ¬éĹ´": 1307,
      "åĵģ": 1308,
      "èĥĮ": 1309,
      "èĮ": 1310,
      "...": 1311,
      "ä¸¹èį¯": 1312,
      "è¿ľåı¤": 1313,
      "å°ıè²Ĥ": 1314,
      "ä¹¾": 1315,
      "ä¿¡": 1316,
      "åĪ©": 1317,
      "æ¥ļ": 1318,
      "çľīå¤´": 1319,
      "æĢ§": 1320,
      "é¢¤": 1321,
      "ä¼łåĩº": 1322,
      "çģ°": 1323,
      "ç§ĺ": 1324,
      "å°±æĺ¯": 1325,
      "æĬĬ": 1326,
      "è¿ľå¤Ħ": 1327,
      "éĺ¶": 1328,
      "æµĳ": 1329,
      "å¹¶æľª": 1330,
      "åĨ³": 1331,
      "æĹłæ³ķ": 1332,
      "åīĳ": 1333,
      "éľĢè¦ģ": 1334,
      "äºĨä¸Ģå£°": 1335,
      "è¸ı": 1336,
      "æŀļ": 1337,
      "è±¡": 1338,
      "å°ıåĮ": 1339,
      "éļĲéļĲ": 1340,
      "å¡Ķ": 1341,
      "çī¹": 1342,
      "å¸Ń": 1343,
      "åķ¸": 1344,
      "çļĦæľĽçĿĢ": 1345,
      "èº«åĲİ": 1346,
      "ä¼Ĺäºº": 1347,
      "èĲ½ä¸ĭ": 1348,
      "åĲĮæł·": 1349,
      "èĹ": 1350,
      "æľº": 1351,
      "æĺĵ": 1352,
      "å¤į": 1353,
      "èĦ¸åºŀä¸Ĭ": 1354,
      "åľ¨äºĨ": 1355,
      "éľİ": 1356,
      "æĬ¤": 1357,
      "å°½æķ°": 1358,
      "åĿ¤": 1359,
      "ç£": 1360,
      "å¼ŁåŃĲ": 1361,
      "ç¬ĳå®¹": 1362,
      "å¿ĥå¤´": 1363,
      "çīĩåĪ»": 1364,
      "åŃĺ": 1365,
      "çļĦæĥ": 1366,
      "äºĨä¸Ģçľ¼": 1367,
      "ä¹±": 1368,
      "ç¬ĳçĿĢ": 1369,
      "èĭı": 1370,
      "åĳµåĳµ": 1371,
      "ä¸ĢæĹģ": 1372,
      "çļĦèĲ§çĤİ": 1373,
      "éĥ¨": 1374,
      "»ä»Ļ": 1375,
      "åĵ¥": 1376,
      "æµ®çİ°": 1377,
      "ä»¿ä½Ľ": 1378,
      "å°ıåĮ»ä»Ļ": 1379,
      "é¼İ": 1380,
      "å´": 1381,
      "è¿¹": 1382,
      "çļĦæĶ": 1383,
      "éľ²": 1384,
      "è·Ŀ": 1385,
      "èĢģèĢħ": 1386,
      "æŁ³": 1387,
      "å¸¦çĿĢ": 1388,
      "æĤĦ": 1389,
      "çĽ¸å½ĵ": 1390,
      "ç³": 1391,
      "éĵ¶": 1392,
      "ä½¿": 1393,
      "æ²¡æĥ³åĪ°": 1394,
      "ç¼ĵç¼ĵçļĦ": 1395,
      "äºĨæĳĩå¤´": 1396,
      "æĤį": 1397,
      "åı¯æĢķ": 1398,
      "éŁ©": 1399,
      "ç«Ļ": 1400,
      "çĨ": 1401,
      "ä¹ĭä¸ĭ": 1402,
      "åı¯æĺ¯": 1403,
      "çĥĪ": 1404,
      "æ¸ħæ¥ļ": 1405,
      "çĤ¼èį¯å¸Ī": 1406,
      "æĿ¾": 1407,
      "é¬": 1408,
      "èį¡": 1409,
      "çļĦæ°Ķ": 1410,
      "å«": 1411,
      "èº«ä¸Ĭ": 1412,
      "ç½©": 1413,
      "å®Ŀ": 1414,
      "é³": 1415,
      "çĶµ": 1416,
      "å½ĵå¹´": 1417,
      "èĬ±": 1418,
      "çķĮ": 1419,
      "è½®": 1420,
      "èģĶ": 1421,
      "èĢĮä¸ĭ": 1422,
      "çĶ·åŃĲ": 1423,
      "é¬¼": 1424,
      "å°Ĩä¼ļ": 1425,
      "å°±åľ¨": 1426,
      "å¼ĢæĿ¥": 1427,
      "å¤ĩ": 1428,
      "è¾¹": 1429,
      "ç¡": 1430,
      "è½»è½»": 1431,
      "å½ĵä¸ĭ": 1432,
      "å¦Ĥæŀľ": 1433,
      "ç®¡": 1434,
      "è¾Ī": 1435,
      "èĢĮæĿ¥": 1436,
      "æ¨ª": 1437,
      "åĥ": 1438,
      "æ¶ħçĽĺ": 1439,
      "è®¸å¤ļ": 1440,
      "éĹŃ": 1441,
      "å¤©ç©ºä¸Ĭ": 1442,
      "å¸®": 1443,
      "æ³¨": 1444,
      "Ġè§ģåĪ°": 1445,
      "èĲ§çĤİçļĦ": 1446,
      "åĲĦ": 1447,
      "åĲŁ": 1448,
      "æĹ¢": 1449,
      "å¼ķ": 1450,
      "åĹ¤": 1451,
      "èĨ": 1452,
      "åħīèĬĴ": 1453,
      "çļĦå¤§": 1454,
      "ä¸Ī": 1455,
      "é¦": 1456,
      "èĩªçĦ¶": 1457,
      "éļ¾ä»¥": 1458,
      "éĢı": 1459,
      "æĺİçĻ½": 1460,
      "çľ¼çĿ": 1461,
      "çļĦæİ": 1462,
      "è¿Ļæīį": 1463,
      "æĢģ": 1464,
      "å²ļ": 1465,
      "åī§": 1466,
      "ä¹¾åĿ¤": 1467,
      "ç½Ĺ": 1468,
      "æ½": 1469,
      "å°ıçĤİ": 1470,
      "èĻİ": 1471,
      "æŀĹåĬ¨çļĦ": 1472,
      "è¯¡": 1473,
      "çŀ³": 1474,
      "ä»ħä»ħ": 1475,
      "åħ°": 1476,
      "æ¯ķç«Ł": 1477,
      "æĹ©": 1478,
      "ä¸ŃçļĦ": 1479,
      "èĹı": 1480,
      "è°·": 1481,
      "å¹¿": 1482,
      "çĭ¼": 1483,
      "ä¸¾": 1484,
      "éĺģ": 1485,
      "çĸ¯": 1486,
      "è§Ĩçº¿": 1487,
      "å¿½": 1488,
      "å±ħçĦ¶": 1489,
      "æĸĹçł´": 1490,
      "å·®": 1491,
      "å¯Łè§ī": 1492,
      "çļĦèĥ½éĩı": 1493,
      "èµ¶": 1494,
      "æĿĲ": 1495,
      "å°±ç®Ĺæĺ¯": 1496,
      "å°ıåŃĲ": 1497,
      "è¯ķ": 1498,
      "è¯¡å¼Ĥ": 1499,
      "åĴ¬": 1500,
      "é¡º": 1501,
      "çŀ§": 1502,
      "è¿ĻçŃī": 1503,
      "åıªè¦ģ": 1504,
      "ä¹ĭå£°": 1505,
      "èº«æĹģ": 1506,
      "å°º": 1507,
      "çĲĨ": 1508,
      "ä¸įçŁ¥éģĵ": 1509,
      "åĢŁ": 1510,
      "æĸĻ": 1511,
      "æİłè¿ĩ": 1512,
      "æĹ§": 1513,
      "ç¥ĸç¬¦": 1514,
      "åĩºäºĨ": 1515,
      "éĻ¤": 1516,
      "æĹ¢çĦ¶": 1517,
      "éĽ¾": 1518,
      "å½©": 1519,
      "èĩĤ": 1520,
      "ĠéĹ»è¨Ģ": 1521,
      "çľ¼çĿĽ": 1522,
      "åħ·": 1523,
      "ç½®": 1524,
      "æĬĸ": 1525,
      "æĢĶ": 1526,
      "ç¿»": 1527,
      "æ¨¡æł·": 1528,
      "è¿Ļçīĩ": 1529,
      "åľ¨ä¸Ģ": 1530,
      "ç¼©": 1531,
      "ä»ĬæĹ¥": 1532,
      "èĦĳ": 1533,
      "äºĨä¸ĢäºĽ": 1534,
      "æºĲ": 1535,
      "å¾Ĳ": 1536,
      "å¥Ī": 1537,
      "ç©¶": 1538,
      "å¦Ĥä½ķ": 1539,
      "é»Ħ": 1540,
      "çķª": 1541,
      "äºĮäºº": 1542,
      "ĠåĲ¬å¾Ĺ": 1543,
      "å¸ĥ": 1544,
      "åľ¨æŃ¤åĪ»": 1545,
      "èŀ": 1546,
      "æ¬¢æ¬¢": 1547,
      "æķħ": 1548,
      "è®¤": 1549,
      "ä¿Ŀ": 1550,
      "åĪļåĪļ": 1551,
      "ä¾ĿæĹ§": 1552,
      "çļĦæĬ": 1553,
      "çļĦçĽ¯çĿĢ": 1554,
      "å¿½çĦ¶": 1555,
      "é¢ĩä¸º": 1556,
      "çł°": 1557,
      "åĩĿéĩį": 1558,
      "é©¬": 1559,
      "å°ĨéĤ£": 1560,
      "é³ŀ": 1561,
      "éģĩ": 1562,
      "æ°Ķæģ¯": 1563,
      "æĵ": 1564,
      "éĺ³": 1565,
      "çĽŁ": 1566,
      "çĥģ": 1567,
      "æ¼ł": 1568,
      "éĹªçĥģ": 1569,
      "ç©¹": 1570,
      "åıĪæĺ¯": 1571,
      "ä¹ĭå¤ĸ": 1572,
      "äºĳå²ļ": 1573,
      "å°Ĩåħ¶": 1574,
      "ä¸ĢåĬ¨": 1575,
      "æĸ½": 1576,
      "éªĩ": 1577,
      "çĤ¼åĪ¶": 1578,
      "èĭįç©¹": 1579,
      "åĪĿ": 1580,
      "çĸ¯çĭĤ": 1581,
      "çĭłçĭłçļĦ": 1582,
      "ä¸Ģçľ¼": 1583,
      "åĪĢ": 1584,
      "éŃĤæ®¿": 1585,
      "ä¸įçĶ±": 1586,
      "èĢģäºº": 1587,
      "é¹": 1588,
      "ç¬ĳäºĨ": 1589,
      "äºĨä¸ĭæĿ¥": 1590,
      "æł¹": 1591,
      "åĬ©": 1592,
      "åºŀå¤§çļĦ": 1593,
      "åºĶæ¬¢æ¬¢": 1594,
      "æ´¾": 1595,
      "å¾®å¾®ä¸Ģ": 1596,
      "çº¹": 1597,
      "çļ®": 1598,
      "æĸĹçł´èĭįç©¹": 1599,
      "ç²¾ç¥ŀ": 1600,
      "æħķ": 1601,
      "è®°": 1602,
      "åĮħ": 1603,
      "åħħ": 1604,
      "çĦļ": 1605,
      "èĩªçĦ¶æĺ¯": 1606,
      "æĦŁè§īåĪ°": 1607,
      "ä¸Ĭåİ»": 1608,
      "éĢĥ": 1609,
      "éĻħ": 1610,
      "çĴ": 1611,
      "æ²³": 1612,
      "å»¶": 1613,
      "å¹¿åľº": 1614,
      "å·¨å¤§çļĦ": 1615,
      "é¸": 1616,
      "äº²": 1617,
      "è¿Ļæĺ¯": 1618,
      "ä¹ĭåīį": 1619,
      "èĢĮèµ·": 1620,
      "ä¸įæĸŃçļĦ": 1621,
      "æĪĺæĸĹ": 1622,
      "ä»»ä½ķ": 1623,
      "æľīçĤ¹": 1624,
      "åĬŀ": 1625,
      "åĽ½": 1626,
      "èĵ": 1627,
      "äºĳå²ļå®Ĺ": 1628,
      "çļĦé»ĳ": 1629,
      "åı«": 1630,
      "åĩĮåİī": 1631,
      "åĲ«": 1632,
      "è¿Ļæł·": 1633,
      "éĻ¨": 1634,
      "è°¢": 1635,
      "åĪĻæĺ¯": 1636,
      "åĩŃ": 1637,
      "åľ°éĿ¢": 1638,
      "æľªæĽ¾": 1639,
      "éĴŁ": 1640,
      "åĩºçİ°åľ¨äºĨ": 1641,
      "ç¤": 1642,
      "äººå½±": 1643,
      "è¶ĬæĿ¥": 1644,
      "çĽĸ": 1645,
      "åħĦ": 1646,
      "éĤ£ä¹Ī": 1647,
      "çľ¯": 1648,
      "ç¨ĭ": 1649,
      "çłĶ": 1650,
      "çīĻ": 1651,
      "æķ´ä¸ª": 1652,
      "éĤ£éĩĮ": 1653,
      "éĢĲæ¸ĲçļĦ": 1654,
      "æ¡": 1655,
      "å¾Ģ": 1656,
      "éĥģ": 1657,
      "è¶ĬæĿ¥è¶Ĭ": 1658,
      "çĥ¦": 1659,
      "åįĬç©º": 1660,
      "æĸ°": 1661,
      "é½": 1662,
      "çļĦéĿĴ": 1663,
      "æĸ½å±ķ": 1664,
      "ç¼ĺ": 1665,
      "ä»·": 1666,
      "å¹»": 1667,
      "ä¹ĭéĹ´": 1668,
      "ç¬ĳäºĨç¬ĳ": 1669,
      "å¹½": 1670,
      "éĹªçĶµ": 1671,
      "ä¸įå¾Ĺ": 1672,
      "åİŁæľ¬": 1673,
      "åĹ¯": 1674,
      "**": 1675,
      "æ¬²": 1676,
      "æĹłå¥Ī": 1677,
      "èŀį": 1678,
      "åĪĩ": 1679,
      "æĬĹ": 1680,
      "çĶŁçĶŁ": 1681,
      "åģı": 1682,
      "éĽĦ": 1683,
      "åł": 1684,
      "åĲĲ": 1685,
      "çº¦": 1686,
      "è¾¾åĪ°": 1687,
      "é²ľ": 1688,
      "æĿľ": 1689,
      "æĭ¥æľīçĿĢ": 1690,
      "èī²çļĦ": 1691,
      "èĵĿ": 1692,
      "åŃĹ": 1693,
      "çļĦç²": 1694,
      "ĠéĤ£": 1695,
      "æŃ¦åĬ¨": 1696,
      "ķ´": 1697,
      "å«£": 1698,
      "æĦ£": 1699,
      "æİ§": 1700,
      "èĶ": 1701,
      "åįĸ": 1702,
      "æĬĢ": 1703,
      "æ®ĭ": 1704,
      "çļĦåĬĽéĩı": 1705,
      "æī©": 1706,
      "æĴŀ": 1707,
      "éĿł": 1708,
      "çĤ¸": 1709,
      "æłĳ": 1710,
      "æĽ´æĺ¯": 1711,
      "æ¯ı": 1712,
      "æĿĤ": 1713,
      "åĨµ": 1714,
      "ä»½": 1715,
      "æĬķ": 1716,
      "ç¢İ": 1717,
      "ç©¿": 1718,
      "ä¸ĭæĸ¹": 1719,
      "å¸ĿåĽ½": 1720,
      "ĠéļıçĿĢ": 1721,
      "çº³åħ°": 1722,
      "èŁ": 1723,
      "è§¦": 1724,
      "ä¼´": 1725,
      "æĪĲåĬŁ": 1726,
      "æĻ¶": 1727,
      "ç¡¬": 1728,
      "éĻ©": 1729,
      "å¹´è½»": 1730,
      "æ¶²": 1731,
      "å¤©éĻħ": 1732,
      "èķ´": 1733,
      "æĺ¾çĦ¶æĺ¯": 1734,
      "çı": 1735,
      "å°ıçļĦ": 1736,
      "è¿Ł": 1737,
      "å¸Ńåį·": 1738,
      "åŀ": 1739,
      "çļĦæĹ¶éĹ´": 1740,
      "çīĩåĪ»åĲİ": 1741,
      "æĦķ": 1742,
      "æ¶Īå¤±": 1743,
      "èĢ³": 1744,
      "å¹¶éĿŀ": 1745,
      "è¿Ļä¸Ģå¹ķ": 1746,
      "ç«¯": 1747,
      "æ¶ĮåĬ¨": 1748,
      "å½ĵçĦ¶": 1749,
      "èŁĴ": 1750,
      "æŁ±": 1751,
      "æĥ³æĿ¥": 1752,
      "éĺŁ": 1753,
      "åĪº": 1754,
      "æľ¨": 1755,
      "æ¢": 1756,
      "åįķ": 1757,
      "èĩ´": 1758,
      "æŃ¤æ¬¡": 1759,
      "ä¸Ģçīĩ": 1760,
      "è¶ħ": 1761,
      "æĦŁåıĹ": 1762,
      "éĤ£ä¸ª": 1763,
      "Ġè¿Ļ": 1764,
      "åľĪ": 1765,
      "æĢ»": 1766,
      "èİİ": 1767,
      "ä¸įçĶ±å¾Ĺ": 1768,
      "èµ¤": 1769,
      "ç¾¤": 1770,
      "èĿ": 1771,
      "å¼ĤéŃĶ": 1772,
      "åĲ¼": 1773,
      "å®¶æĹı": 1774,
      "å°ĬèĢħ": 1775,
      "æŃ¦åĬ¨ä¹¾åĿ¤": 1776,
      "å¤ªè¿ĩ": 1777,
      "éĢŁåº¦": 1778,
      "é²ľè¡Ģ": 1779,
      "éĩįéĩį": 1780,
      "èĥľ": 1781,
      "æī¿": 1782,
      "åı¦": 1783,
      "çľŁçļĦ": 1784,
      "æ·±å¤Ħ": 1785,
      "æĿľèİİ": 1786,
      "ä¸Ģéĺµ": 1787,
      "æĬĵ": 1788,
      "åı¯ä»¥": 1789,
      "éº»çĥ¦": 1790,
      "æ¶¨": 1791,
      "æ³Ľ": 1792,
      "æľĢä¸º": 1793,
      "çľŁæŃ£çļĦ": 1794,
      "çļĦæŀĹåĬ¨": 1795,
      "ä¸ĢçĤ¹": 1796,
      "åĩłä¹İæĺ¯": 1797,
      "åĲ¦": 1798,
      "çħ§": 1799,
      "çľĭè§ģ": 1800,
      "æŁĶ": 1801,
      "ä¹ĭæ°Ķ": 1802,
      "åĺŃ": 1803,
      "åı³": 1804,
      "ä»ĺ": 1805,
      "åŃĺåľ¨": 1806,
      "åĳ³": 1807,
      "çļĦç²¾": 1808,
      "äºĨè®¸å¤ļ": 1809,
      "ç§»": 1810,
      "ä¼Ĺå¤ļ": 1811,
      "æĳĩäºĨæĳĩå¤´": 1812,
      "æĭ¦": 1813,
      "è¶³ä»¥": 1814,
      "å¿įä¸įä½ıçļĦ": 1815,
      "æľīæīĢ": 1816,
      "ç«¹": 1817,
      "åĨħéĻ¢": 1818,
      "éħ": 1819,
      "çļĦæĭ": 1820,
      "çļĦæ³¢": 1821,
      "æīŃ": 1822,
      "éĺ»": 1823,
      "ç¼Ŀ": 1824,
      "å¾¡": 1825,
      "ç¥ŀç§ĺ": 1826,
      "é»ĺ": 1827,
      "æ´»": 1828,
      "åľ¨èĲ§çĤİ": 1829,
      "çģŃ": 1830,
      "ç»ķ": 1831,
      "æŀª": 1832,
      "é¢Ĭ": 1833,
      "ĠæľĽçĿĢ": 1834,
      "æĪĴ": 1835,
      "éģĵå®Ĺ": 1836,
      "è¿ĩæĿ¥": 1837,
      "ä¸ĢçĽ´": 1838,
      "èĦ¸é¢Ĭ": 1839,
      "ä¼¸": 1840,
      "çĭĤæļ´": 1841,
      "å®Įåħ¨": 1842,
      "¿Ģ": 1843,
      "æļ´æİł": 1844,
      "å¯Ĩ": 1845,
      "çļĦè¡Ģ": 1846,
      "æĢĿ": 1847,
      "åĨ·ç¬ĳ": 1848,
      "åıªè§ģ": 1849,
      "æĪĲä¸º": 1850,
      "èĢĮæĺ¯": 1851,
      "è°ĵ": 1852,
      "éĽ·éľ": 1853,
      "åı¶": 1854,
      "çļĦæĦŁè§ī": 1855,
      "æ¸©": 1856,
      "æĺŁæĸĹ": 1857,
      "ç»¿": 1858,
      "æĽ²": 1859,
      "èİ·": 1860,
      "æĭĽ": 1861,
      "è¯·": 1862,
      "Ġä¸įè¿ĩ": 1863,
      "è¿Ļä½į": 1864,
      "è¿ĺæľī": 1865,
      "é¡»": 1866,
      "éŃĶåħ½": 1867,
      "ä¸Ģæ¬¡": 1868,
      "åĪ°æĹ¶åĢĻ": 1869,
      "çĮĽçļĦ": 1870,
      "å°ģ": 1871,
      "æĺ¾å¾Ĺ": 1872,
      "çļĦæ¶Ī": 1873,
      "çļĦæµ": 1874,
      "é»ĳæļĹ": 1875,
      "è¢ĸ": 1876,
      "ç®Ģ": 1877,
      "ä¸ĸ": 1878,
      "é¢Ĩ": 1879,
      "åľ¨è¿ĻéĩĮ": 1880,
      "æĢ¥å¿Ļ": 1881,
      "å¼ºæ¨ª": 1882,
      "æļ´æ¶Į": 1883,
      "å±ŀ": 1884,
      "è¢ĭ": 1885,
      "ç´«çłĶ": 1886,
      "èĢĮå·²": 1887,
      "ç¬¼": 1888,
      "éĤ£éģĵ": 1889,
      "æĿ¥è¯´": 1890,
      "å·´": 1891,
      "åħĥéĹ¨": 1892,
      "è¿ħéĢŁ": 1893,
      "ä¸įçĦ¶": 1894,
      "å¿µ": 1895,
      "éĿ¢å¯¹çĿĢ": 1896,
      "ä¸Ģä¸Ŀ": 1897,
      "åı¦å¤ĸ": 1898,
      "åĵĪ": 1899,
      "åĸ·": 1900,
      "å®Ľ": 1901,
      "å¼ºæĤį": 1902,
      "ä¸įç®¡": 1903,
      "åħ¶ä»ĸ": 1904,
      "åĵ¼": 1905,
      "æ»ļ": 1906,
      "å±Ĥæ¬¡": 1907,
      "åĩĨ": 1908,
      "æľį": 1909,
      "çļĦæ³¢åĬ¨": 1910,
      "å·¦": 1911,
      "è¿ĩåİ»": 1912,
      "çĭŀ": 1913,
      "å°ıå¿ĥ": 1914,
      "æĬ¬å¤´": 1915,
      "Ĩé»ĳ": 1916,
      "åĨ²çĿĢ": 1917,
      "èĦ±": 1918,
      "è½»å£°éģĵ": 1919,
      "å±±èĦī": 1920,
      "æľĽåĲĳ": 1921,
      "çļĦæĢ": 1922,
      "æĬµ": 1923,
      "åĵįå½»": 1924,
      "ä¾ĿçĦ¶": 1925,
      "å®Ľå¦Ĥ": 1926,
      "åĺ´ä¸Ń": 1927,
      "éľİéĤ£": 1928,
      "å°ĺ": 1929,
      "æĪ¿": 1930,
      "è¿Ļä¸Ģæ¬¡": 1931,
      "ä¹ĭäºº": 1932,
      "åĺ´è§Ĵ": 1933,
      "ä»£": 1934,
      "æī©æķ£": 1935,
      "å°¸": 1936,
      "ä½Ļ": 1937,
      "åĽº": 1938,
      "éĺ´æ²ī": 1939,
      "éĹ®éģĵ": 1940,
      "éĨ": 1941,
      "ä¸¤éģĵ": 1942,
      "åīįæĸ¹": 1943,
      "èĤī": 1944,
      "éĽ·éľĨ": 1945,
      "çĨŁ": 1946,
      "äºī": 1947,
      "æŃ¤å¤Ħ": 1948,
      "é¢¤æĬĸ": 1949,
      "å§Ĳ": 1950,
      "éģĩè§ģ": 1951,
      "çļĦæķ": 1952,
      "å®īéĿĻ": 1953,
      "æĸ¥": 1954,
      "åĲĮæĹ¶": 1955,
      "èı": 1956,
      "ä½Ĩåį´": 1957,
      "æĦŁåĪ°": 1958,
      "å¾ĹåĪ°": 1959,
      "æīĭæ®µ": 1960,
      "éĽª": 1961,
      "æŃ¢": 1962,
      "åĸĿå£°": 1963,
      "è¿Ĳ": 1964,
      "æ³¢ä¸ľ": 1965,
      "çļĦæ¸": 1966,
      "èµĦ": 1967,
      "èĦļæŃ¥": 1968,
      "éĢī": 1969,
      "ä¸įèĥ½": 1970,
      "éĤ£èĪ¬": 1971,
      "å¥ĩå¼Ĥ": 1972,
      "æĬ¹": 1973,
      "å°ĳå¥³": 1974,
      "åĿļ": 1975,
      "ç¬¼ç½©": 1976,
      "åħ´": 1977,
      "ç¾İæĿľèİİ": 1978,
      "æŃ¦åŃ¦": 1979,
      "çļĦæĶ»": 1980,
      "å·ħ": 1981,
      "å¼¹": 1982,
      "åįİ": 1983,
      "åľºä¸Ń": 1984,
      "åĵª": 1985,
      "éķĩ": 1986,
      "å°Ĩä¹ĭ": 1987,
      "åıªæľī": 1988,
      "çļĦç©ºéĹ´": 1989,
      "æ¹": 1990,
      "æĬ±": 1991,
      "ä¸¥": 1992,
      "å®³": 1993,
      "å®Ĺæ´¾": 1994,
      "ä¸įæķ¢": 1995,
      "æİī": 1996,
      "å¹¶ä¸Ķ": 1997,
      "èį¯æĿĲ": 1998,
      "åĩ°": 1999,
      "åıªè§ģå¾Ĺ": 2000,
      "æĸĹæĬĢ": 2001,
      "æīĢè°ĵ": 2002,
      "ä¸Ģåı£": 2003,
      "åĨĽ": 2004,
      "ç¦»å¼Ģ": 2005,
      "æ··": 2006,
      "è®¸äºĽ": 2007,
      "æĶ»åĩ»": 2008,
      "ä¸įåı¯èĥ½": 2009,
      "çİ°åľ¨çļĦ": 2010,
      "è¿Ļå®¶ä¼Ļ": 2011,
      "æµĨ": 2012,
      "çĲħ": 2013,
      "éĺ²": 2014,
      "æĹ¥åĲİ": 2015,
      "éĽĦæµĳ": 2016,
      "ä½İæ²ī": 2017,
      "èĶĵ": 2018,
      "æĤ¬": 2019,
      "åľ¨æŀĹåĬ¨": 2020,
      "è·Ŀç¦»": 2021,
      "å¯»å¸¸": 2022,
      "æ¿Ģ": 2023,
      "å¥³åŃĲ": 2024,
      "çĲħå¤©": 2025,
      "éĽħ": 2026,
      "ä¸įçŁ¥": 2027,
      "ä¼´éļıçĿĢ": 2028,
      "æĮĳ": 2029,
      "ä¸įè¦ģ": 2030,
      "äºĨä¸Ģä¸ª": 2031,
      "æµĭ": 2032,
      "ç¬¬ä¸Ģåįĥ": 2033,
      "é£ĺ": 2034,
      "ç³»": 2035,
      "çľĭä¸Ĭåİ»": 2036,
      "è¿½": 2037,
      "æ²Ļ": 2038,
      "çĹĽ": 2039,
      "åį³ä¾¿": 2040,
      "å¤©å¦ĸ": 2041,
      "æµĵéĥģ": 2042,
      "æŀĹçĲħå¤©": 2043,
      "æĭ¿": 2044,
      "è§ģçĬ¶": 2045,
      "å½ĵåĪĿ": 2046,
      "æ¸ħç«¹": 2047,
      "åĸĥåĸĥ": 2048,
      "åĥı": 2049,
      "çİĽ": 2050,
      "æĻĭ": 2051,
      "è´¨": 2052,
      "æīĭèĩĤ": 2053,
      "çŀ§å¾Ĺ": 2054,
      "æľŁ": 2055,
      "å®ŀåľ¨": 2056,
      "éĶģ": 2057,
      "æĭįåįĸ": 2058,
      "ç¢ĳ": 2059,
      "ç§°": 2060,
      "ä¸ĢæĮ¥": 2061,
      "è¿Ļæ¬¡": 2062,
      "ç»«": 2063,
      "è£Ĥç¼Ŀ": 2064,
      "åĮĹ": 2065,
      "åºŀå¤§": 2066,
      "ç±³": 2067,
      "éģ¥": 2068,
      "çľ¼çŀ³": 2069,
      "æīĢæľīäºº": 2070,
      "æ´ª": 2071,
      "çļĦåħĥåĬĽ": 2072,
      "ä¸ĭåİ»": 2073,
      "ä¿ı": 2074,
      "èķ´åĲ«": 2075,
      "æŀģåħ¶": 2076,
      "å°Ķ": 2077,
      "æĹłæķ°éģĵ": 2078,
      "è½¬èº«": 2079,
      "èĶĵå»¶": 2080,
      "å«£çĦ¶": 2081,
      "çĿĢéĤ£": 2082,
      "éļĲéļĲéĹ´": 2083,
      "çº¯": 2084,
      "çĪĨåıĳ": 2085,
      "çļĦå°ı": 2086,
      "è¾°": 2087,
      "ä¸Ģä¸ĭ": 2088,
      "å°ĳå¹´": 2089,
      "åĽ¾": 2090,
      "å±Ģ": 2091,
      "åĳ¢": 2092,
      "è£¹": 2093,
      "çļĦæľĽçĿĢéĤ£": 2094,
      "å¯Ĥ": 2095,
      "è·³": 2096,
      "è¿ĽäºĨ": 2097,
      "è¹": 2098,
      "å¯¹æĸ¹": 2099,
      "æĭ¼": 2100,
      "çļĦæĳ": 2101,
      "èļ": 2102,
      "å·¨å¤§": 2103,
      "æĿŁ": 2104,
      "åĲĮæł·æĺ¯": 2105,
      "ä¸Ģäºº": 2106,
      "éĨĴ": 2107,
      "è¯Ĩ": 2108,
      "åĮħè£¹": 2109,
      "æİ©": 2110,
      "çļĦä¸ľè¥¿": 2111,
      "äºĨåĩºæĿ¥": 2112,
      "éĶĭ": 2113,
      "çļĦæ°Ķæģ¯": 2114,
      "éĤ£ä¸Ģ": 2115,
      "å¿ħé¡»": 2116,
      "åºŁ": 2117,
      "æ¼Ĩé»ĳ": 2118,
      "å¯Łè§īåĪ°": 2119,
      "æµ·æ³¢ä¸ľ": 2120,
      "æŀ«": 2121,
      "æīĭæĮĩ": 2122,
      "çļĦç´": 2123,
      "çĽĽ": 2124,
      "åĬłçİĽ": 2125,
      "åĶĲ": 2126,
      "çļĦæģ": 2127,
      "å¿ĥç¥ŀ": 2128,
      "åĩĢ": 2129,
      "èī²çģ«çĦ°": 2130,
      "çľĭåĲĳ": 2131,
      "åĬ¨æīĭ": 2132,
      "å°ĦèĢĮåĩº": 2133,
      "åĲĥ": 2134,
      "ç±»": 2135,
      "åĶ¯": 2136,
      "å±±å³°": 2137,
      "ç»«æ¸ħç«¹": 2138,
      "çķ¥å¾®æľīäºĽ": 2139,
      "åĭ": 2140,
      "çĵ": 2141,
      "åİħ": 2142,
      "åıĮçľ¼": 2143,
      "å¨ĩ": 2144,
      "ä¸įä»ħ": 2145,
      "åĳ¨èº«": 2146,
      "ç«ĭåĪ»": 2147,
      "Ġå¯¹äºİ": 2148,
      "å¤«": 2149,
      "ä¸įéĶĻ": 2150,
      "å·ħå³°": 2151,
      "åħµ": 2152,
      "ç»ıè¿ĩ": 2153,
      "çļĦåľ°æĸ¹": 2154,
      "æĥ§": 2155,
      "å¼ºå¤§": 2156,
      "æĸĹå®Ĺ": 2157,
      "å¸Ĥ": 2158,
      "æ¯ģ": 2159,
      "èº¯": 2160,
      "æľīçĿĢä¸ĢäºĽ": 2161,
      "åİĨ": 2162,
      "åīįèĢħ": 2163,
      "åľĨ": 2164,
      "ä½łçļĦ": 2165,
      "åª": 2166,
      "çĭ°": 2167,
      "ç»Ŀå¯¹": 2168,
      "æĩ": 2169,
      "çļĦå°Ĩ": 2170,
      "ä¸įåĪ°": 2171,
      "æĮī": 2172,
      "çľ¨": 2173,
      "éļĨ": 2174,
      "åıĺåĮĸ": 2175,
      "æ²īåĲŁ": 2176,
      "æĢĢ": 2177,
      "çĭ°çĭŀ": 2178,
      "è¯¸": 2179,
      "æĳĨ": 2180,
      "æĿ¾äºĨä¸Ģåı£æ°Ķ": 2181,
      "éĢłåĮĸ": 2182,
      "éĤ£ä½į": 2183,
      "èĭıåįĥ": 2184,
      "ĠæľĽçĿĢéĤ£": 2185,
      "åĨįæ¬¡": 2186,
      "å®«": 2187,
      "è´Ł": 2188,
      "å¤ļå°ĳ": 2189,
      "...âĢĿ": 2190,
      "æĺĬ": 2191,
      "çİĩ": 2192,
      "çļĦæ³¨": 2193,
      "å¿ħçĦ¶": 2194,
      "èĥ¸": 2195,
      "ä»¶": 2196,
      "ä»ĸä»¬çļĦ": 2197,
      "åī§çĥĪ": 2198,
      "æ·¡æ·¡çļĦ": 2199,
      "éĩĳåħī": 2200,
      "ä¸įäºĨ": 2201,
      "è¿Ļä¸ľè¥¿": 2202,
      "çļĦæ·": 2203,
      "Ġä¸Ģ": 2204,
      "å¯¼": 2205,
      "ä¹Łæĺ¯åľ¨": 2206,
      "çľĭäºĨ": 2207,
      "æį®": 2208,
      "é½Ĳ": 2209,
      "çĿģ": 2210,
      "ç´§æı¡": 2211,
      "çļĦç¡®æĺ¯": 2212,
      "ä¸įè¿ľå¤Ħ": 2213,
      "åĶĩ": 2214,
      "æİ¢": 2215,
      "èĻļæĹł": 2216,
      "çħŀ": 2217,
      "æĽ¹": 2218,
      "å¹¶éĿŀæĺ¯": 2219,
      "ä¾¿æĺ¯èĥ½å¤Ł": 2220,
      "éļ¾éģĵ": 2221,
      "éĤª": 2222,
      "çĤ½": 2223,
      "æĸĹçļĩ": 2224,
      "æ¯Ķèµ·": 2225,
      "è§£åĨ³": 2226,
      "æµª": 2227,
      "è®©äºº": 2228,
      "ç²¾ç¥ŀåĬĽ": 2229,
      "å½Ĵ": 2230,
      "æŀģç«¯": 2231,
      "éģ¿": 2232,
      "å®ĹæĹı": 2233,
      "æĥ¨": 2234,
      "æŃ£æĺ¯": 2235,
      "åį±": 2236,
      "ä¸ºäºĨ": 2237,
      "åįĬçĤ¹": 2238,
      "æĮģç»Ń": 2239,
      "ç¤´": 2240,
      "å¼Ĥå¸¸": 2241,
      "ç¨³": 2242,
      "æ·¡æ·¡çļĦéģĵ": 2243,
      "åĺ¿åĺ¿": 2244,
      "é¢Ŀ": 2245,
      "ç´§ç´§": 2246,
      "åıªä¸įè¿ĩ": 2247,
      "åĨ°åĨ·": 2248,
      "å´©": 2249,
      "çĭĪ": 2250,
      "æ¦": 2251,
      "è¿Łçĸĳ": 2252,
      "åĨ¥": 2253,
      "ħç¤´": 2254,
      "å¤©çģ«": 2255,
      "å¿«çļĦ": 2256,
      "çĤ½çĥŃ": 2257,
      "æŀ¯": 2258,
      "ä½įç½®": 2259,
      "çĭ¼çĭĪ": 2260,
      "éĹªæİł": 2261,
      "å¹³éĿĻ": 2262,
      "æµ©": 2263,
      "æİ¥çĿĢ": 2264,
      "æĳ¸": 2265,
      "å¤ľ": 2266,
      "ç¼ł": 2267,
      "æīŃæĽ²": 2268,
      "å°Ĩè¿ĳ": 2269,
      "åĿĹ": 2270,
      "æĬ¬èµ·": 2271,
      "åĬłçİĽå¸ĿåĽ½": 2272,
      "æŀĹå®¶": 2273,
      "èĩ³äºİ": 2274,
      "ä¸įå°ĳäºº": 2275,
      "å¾®å¾®ä¸Ģç¬ĳ": 2276,
      "åĬ²é£İ": 2277,
      "ä¸ĢæĹģçļĦ": 2278,
      "æķ£åıĳ": 2279,
      "åĳ¼åķ¸": 2280,
      "åıĳçİ°": 2281,
      "æŀľçĦ¶": 2282,
      "çŀ¥": 2283,
      "åľ¨ä¸Ģèµ·": 2284,
      "æĭ³å¤´": 2285,
      "ä»ĸä¹Ł": 2286,
      "è¿ĺæľīçĿĢ": 2287,
      "çļĦæĦı": 2288,
      "ä¹ĭæĹ¶": 2289,
      "æĴķ": 2290,
      "æľºä¼ļ": 2291,
      "è¿ľè¿ľ": 2292,
      "å¤º": 2293,
      "åħħæĸ¥": 2294,
      "ç¬ĳå£°": 2295,
      "åĳĨ": 2296,
      "å¤§èįĴ": 2297,
      "åĸĿéģĵ": 2298,
      "ä¸¾åĬ¨": 2299,
      "èµĦæł¼": 2300,
      "è®©å¾Ĺä»ĸ": 2301,
      "æĤĦçĦ¶": 2302,
      "æĶ¯": 2303,
      "èĦĳè¢ĭ": 2304,
      "å¯¹æīĭ": 2305,
      "èµ¤çº¢": 2306,
      "å²©æµĨ": 2307,
      "å¸ħ": 2308,
      "ç¨ĭåº¦": 2309,
      "å©": 2310,
      "è½¬åĲĳ": 2311,
      "åĩºåİ»": 2312,
      "å·¦åı³": 2313,
      "çļĦæĹ¶åĢĻ": 2314,
      "æł¹æľ¬": 2315,
      "é¥": 2316,
      "æľīäºĨ": 2317,
      "åħĥä¸¹": 2318,
      "æİłè¿ĩä¸ĢæĬ¹": 2319,
      "èł": 2320,
      "èµ·èº«": 2321,
      "èĲ§çĤİä¹Łæĺ¯": 2322,
      "é»ĳè¢į": 2323,
      "åĩĨå¤ĩ": 2324,
      "æ¶Įä¸Ĭ": 2325,
      "ä¼¼æĺ¯": 2326,
      "å¤©åľ°éĹ´": 2327,
      "ç»Ĩå¾®": 2328,
      "å´ĸ": 2329,
      "çļĦèº«å½±": 2330,
      "çļĦæļ": 2331,
      "éĵº": 2332,
      "ĠçĦ¶èĢĮ": 2333,
      "æķĪ": 2334,
      "çľ¼åīį": 2335,
      "æ±ĩ": 2336,
      "åĪĴ": 2337,
      "èĤ©": 2338,
      "å¾®å¾®çĤ¹å¤´": 2339,
      "çľ¸åŃĲ": 2340,
      "ä»¥åīį": 2341,
      "åĢ¾": 2342,
      "èĴ": 2343,
      "èº«ä½ĵä¹ĭä¸Ĭ": 2344,
      "ç¢°": 2345,
      "ä»¤äºº": 2346,
      "èĮĥ": 2347,
      "è¯´è¯Ŀ": 2348,
      "éĹªè¿ĩ": 2349,
      "ï¼İ": 2350,
      "èĢģå¤«": 2351,
      "æĹłçĸĳ": 2352,
      "ä¸¤ä¸ª": 2353,
      "åľ¨ä»ĸ": 2354,
      "ç»ĥ": 2355,
      "ä¹ĭå¤Ħ": 2356,
      "å¦ĸåħ½": 2357,
      "äº¤æīĭ": 2358,
      "æĽ¾ç»ı": 2359,
      "çļĦçģ«": 2360,
      "çĦ±": 2361,
      "åıĭ": 2362,
      "å¤§æĪĺ": 2363,
      "ä¹Į": 2364,
      "æĹłæ¯Ķ": 2365,
      "å¥³äºº": 2366,
      "å¤§éķ¿èĢģ": 2367,
      "ç«ŁçĦ¶æĺ¯": 2368,
      "åį³å°Ĩ": 2369,
      "åĮĸä¸ºä¸Ģéģĵ": 2370,
      "çŁŃçŁŃ": 2371,
      "æħ¢": 2372,
      "æī«è¿ĩ": 2373,
      "çļĦç²¾ç¥ŀ": 2374,
      "ä¾µ": 2375,
      "åĵĹ": 2376,
      "è´¹": 2377,
      "åĩºæĿ¥çļĦ": 2378,
      "ç»§": 2379,
      "ç¼ĺæķħ": 2380,
      "è¯¥æĺ¯": 2381,
      "æĬ¥": 2382,
      "æŀģä¸ºçļĦ": 2383,
      "äº®": 2384,
      "åįĹ": 2385,
      "åĨ²åĩ»": 2386,
      "æĺİæĺ¾": 2387,
      "éĻ¨èĲ½": 2388,
      "ä¸ĢæŃ¥": 2389,
      "åĬ¨çĿĢ": 2390,
      "é¹°": 2391,
      "è§Ĥ": 2392,
      "èµĽ": 2393,
      "ï¼Ī": 2394,
      "åı¤èĢģ": 2395,
      "èĢĮæĿ¥çļĦ": 2396,
      "èµ«": 2397,
      "æµĳèº«": 2398,
      "æĥĳ": 2399,
      "æĺ¯ä¸Ģ": 2400,
      "ç¨į": 2401,
      "å®¢": 2402,
      "è¶ħçº§": 2403,
      "éģŃ": 2404,
      "æ¶Īæķ£": 2405,
      "çļĦå¤©": 2406,
      "çļĦèº«ä½ĵ": 2407,
      "èĲ§å®¶": 2408,
      "è¿ĩå¤´": 2409,
      "åŁİå¸Ĥ": 2410,
      "æĭħ": 2411,
      "å¦ĸå¸ħ": 2412,
      "è¡¡": 2413,
      "çľĭçĿĢ": 2414,
      "éľ¸": 2415,
      "åı¥": 2416,
      "åıĤ": 2417,
      "ä¹Łæĺ¯ä¸Ģ": 2418,
      "éĿĴå¹´": 2419,
      "çļĦå¯¹çĿĢ": 2420,
      "å®Ī": 2421,
      "çĶ²": 2422,
      "çº³æĪĴ": 2423,
      "æĤ¬æµ®": 2424,
      "åļ": 2425,
      "äºĮåįģ": 2426,
      "èĿİ": 2427,
      "å¤ļå¹´": 2428,
      "éŁ©æŀ«": 2429,
      "éĹªçĶµèĪ¬çļĦ": 2430,
      "è§Ĩä¸ĭ": 2431,
      "ç¬¬ä¸ī": 2432,
      "åıĮæīĭ": 2433,
      "èĭįçĻ½": 2434,
      "åģľçķĻ": 2435,
      "çļĦçģµéŃĤ": 2436,
      "åıĮçĽ®": 2437,
      "çº³åħ°å«£çĦ¶": 2438,
      "å¹¸": 2439,
      "èĩ³å°ĳ": 2440,
      "æļ´æ¶ĮèĢĮåĩº": 2441,
      "æ³ī": 2442,
      "é¢ĺ": 2443,
      "ä¸įå¼±": 2444,
      "çİīæīĭ": 2445,
      "æª": 2446,
      "å°ģåį°": 2447,
      "åĳĺ": 2448,
      "çļĦçł": 2449,
      "ä¼ĳ": 2450,
      "æĦıçļĦ": 2451,
      "çİĦå¢ĥ": 2452,
      "ä¸Ģæŀļ": 2453,
      "çļĦæĮ": 2454,
      "ç¼ķ": 2455,
      "åºľ": 2456,
      "é¸£": 2457,
      "ä»¥ä¸Ģç§į": 2458,
      "ç©¶ç«Ł": 2459,
      "ä¾¿æĺ¯ä¼ļ": 2460,
      "æīĢè¯´": 2461,
      "å®ŀåľ¨æĺ¯": 2462,
      "èį¯é¼İ": 2463,
      "åħ¥äºĨ": 2464,
      "æīĵç®Ĺ": 2465,
      "éĩĳèī²": 2466,
      "è¿Ļè¯Ŀ": 2467,
      "è®º": 2468,
      "éĶĲ": 2469,
      "åĹ¡": 2470,
      "æī¬": 2471,
      "éĻ·": 2472,
      "é£İæļ´": 2473,
      "åŃ©": 2474,
      "å¿Į": 2475,
      "å£°åĵį": 2476,
      "æ²¡æľīä¸Ŀæ¯«": 2477,
      "æĤī": 2478,
      "æ±Ĥ": 2479,
      "èģĶçĽŁ": 2480,
      "ä»¥ä¸º": 2481,
      "éĻį": 2482,
      "å¤§æ®¿": 2483,
      "å¦Ĥä»ĬçļĦ": 2484,
      "ä½£": 2485,
      "åŃ¦éĻ¢": 2486,
      "ç£ħç¤´": 2487,
      "ä¹Łå°±": 2488,
      "éª¤": 2489,
      "æ±ł": 2490,
      "æªĢ": 2491,
      "çļĦéĤ£äºĽ": 2492,
      "éĢīæĭ": 2493,
      "åĪĹ": 2494,
      "æĭī": 2495,
      "åĴ»": 2496,
      "èŀįåĲĪ": 2497,
      "ä½£åħµ": 2498,
      "æľīäºĽä¸į": 2499,
      "èĢĹ": 2500,
      "çĪ·": 2501,
      "æķĮ": 2502,
      "¾İ": 2503,
      "ç»ĻæĪĳ": 2504,
      "èĳ": 2505,
      "æĹłå½¢": 2506,
      "è¿«": 2507,
      "èĸĦ": 2508,
      "éĺ»æĭ¦": 2509,
      "æĿ¥äºĨ": 2510,
      "åĽ°": 2511,
      "æ°Ľ": 2512,
      "çĵ¶": 2513,
      "è®¶": 2514,
      "åħ¶ä½ĵåĨħ": 2515,
      "éĻ¤äºĨ": 2516,
      "åĲ´": 2517,
      "éĩįå°º": 2518,
      "è½»æĺĵ": 2519,
      "æ»¡èĦ¸": 2520,
      "çļĦæĥĬ": 2521,
      "ä½¿çĶ¨": 2522,
      "åĬŀæ³ķ": 2523,
      "å·ŀ": 2524,
      "çªģçł´": 2525,
      "éŃĤæĹı": 2526,
      "æĻĮ": 2527,
      "è¡¨éĿ¢": 2528,
      "åİļ": 2529,
      "åİ»äºĨ": 2530,
      "ç¬¬äºĮ": 2531,
      "åĪĨéĴŁ": 2532,
      "å®¹æĺĵ": 2533,
      "è§ĴåŁŁ": 2534,
      "æĸ¹åĲĳ": 2535,
      "æĻº": 2536,
      "æİ¥ä¸ĭæĿ¥": 2537,
      "è¿ĺèĥ½": 2538,
      "ç©ºæ°Ķ": 2539,
      "åĬŁæ³ķ": 2540,
      "æĺ¯åľ¨": 2541,
      "æľĢç»Ī": 2542,
      "å¢¨": 2543,
      "å®¤": 2544,
      "åħ³ç³»": 2545,
      "çļĦæĸĹæ°Ķ": 2546,
      "åĩī": 2547,
      "éĹ·": 2548,
      "å¼ºè¡Į": 2549,
      "çļĦæ¯": 2550,
      "å¤§åİħ": 2551,
      "çĭ¬": 2552,
      "åľŁ": 2553,
      "ä¸įè§ģ": 2554,
      "çļĦæ¨": 2555,
      "ä¹Łæĺ¯æľīçĿĢ": 2556,
      "é»ĳå½±": 2557,
      "æį¢": 2558,
      "åĮº": 2559,
      "åºĶè¯¥æĺ¯": 2560,
      "æĸĩ": 2561,
      "èº«ä»½": 2562,
      "åľ°æĸ¹": 2563,
      "æĦŁåºĶ": 2564,
      "ä»Ĭå¤©": 2565,
      "åĳ³éģĵ": 2566,
      "æ±ĩèģļ": 2567,
      "ä¸ĢæĿ¡": 2568,
      "å°ļ": 2569,
      "æĵİ": 2570,
      "ä¸ĢéĹª": 2571,
      "éļĲèĹı": 2572,
      "éĺµæ³ķ": 2573,
      "æİĮå¿ĥ": 2574,
      "åįĬæĻĮ": 2575,
      "çªľ": 2576,
      "çļĦæĳĩ": 2577,
      "æİĴ": 2578,
      "æĬ½": 2579,
      "è¢ĸè¢į": 2580,
      "éĤ£èĤ¡": 2581,
      "å£ģ": 2582,
      "çĮĽçļĦä¸Ģ": 2583,
      "ä¸įçĦ¶çļĦè¯Ŀ": 2584,
      "æĶ¾å¿ĥ": 2585,
      "æľīäºº": 2586,
      "å¨ģåĬĽ": 2587,
      "åı¤æĹı": 2588,
      "å¸ĥæ»¡": 2589,
      "èĢģå®¶ä¼Ļ": 2590,
      "Ġåľ¨éĤ£": 2591,
      "åħį": 2592,
      "ä»¥åĲİ": 2593,
      "å¯Ĵæ°Ķ": 2594,
      "èİ·å¾Ĺ": 2595,
      "æĦĪ": 2596,
      "å²Ľ": 2597,
      "çģ«èİ²": 2598,
      "æĥ³å¿ħ": 2599,
      "ä¹ĭä¸ŃçļĦ": 2600,
      "è½®åĽŀ": 2601,
      "ä¸¤åĲį": 2602,
      "éľ²åĩº": 2603,
      "æĪĲäºĨ": 2604,
      "æĥĬäººçļĦ": 2605,
      "æ¯«æĹł": 2606,
      "åĲ¸æĶ¶": 2607,
      "çĬ¶æĢģ": 2608,
      "å¤©çĽĸ": 2609,
      "ç¬ĳç¬ĳ": 2610,
      "é¢ľ": 2611,
      "ä¼łæĿ¥": 2612,
      "çļĦæ¨¡": 2613,
      "åĳĬ": 2614,
      "äºĭæĥħ": 2615,
      "èľ": 2616,
      "æŃ¤è¯Ŀ": 2617,
      "å°¾": 2618,
      "è§Ħ": 2619,
      "ç¬¦å¸Ī": 2620,
      "èº«å½¢ä¸ĢåĬ¨": 2621,
      "åĩı": 2622,
      "éŁµ": 2623,
      "çĶŁæŃ»": 2624,
      "èĦĨ": 2625,
      "çľĭäºĨä¸Ģçľ¼": 2626,
      "éľĩæĥĬ": 2627,
      "ç©¶ç«Łæĺ¯": 2628,
      "çĺ": 2629,
      "ä¸½": 2630,
      "æ®µæĹ¶éĹ´": 2631,
      "éĵºå¤©çĽĸ": 2632,
      "éĺİ": 2633,
      "ä¸įå®ļ": 2634,
      "å¦ĸçģ«": 2635,
      "èĦļæİĮ": 2636,
      "çļĦæĥħ": 2637,
      "çĿģå¼Ģ": 2638,
      "ä¸Ģä½į": 2639,
      "è°Ī": 2640,
      "ä»ĸèĥ½å¤Ł": 2641,
      "é»ĳè§ĴåŁŁ": 2642,
      "åĤ²": 2643,
      "æĴķè£Ĥ": 2644,
      "è¯§": 2645,
      "åį±éĻ©": 2646,
      "ä¾ĿçĦ¶æĺ¯": 2647,
      "çº§åĪ«": 2648,
      "çĤ¼åĮĸ": 2649,
      "æ²īå£°éģĵ": 2650,
      "æ¬£": 2651,
      "éĿĴæªĢ": 2652,
      "åħħæĸ¥çĿĢ": 2653,
      "æĬ¢": 2654,
      "çļĦç´«": 2655,
      "éĵºå¤©çĽĸåľ°": 2656,
      "çĸ¯çĭĤçļĦ": 2657,
      "åĩŃåĢŁ": 2658,
      "ç»§ç»Ń": 2659,
      "ä¸´": 2660,
      "âĢĿï¼Į": 2661,
      "è¿ĺä¸į": 2662,
      "åħĦå¼Ł": 2663,
      "èĢģå¸Ī": 2664,
      "éĺ²å¾¡": 2665,
      "ä¹Ŀå¹½": 2666,
      "ä¸İéĤ£": 2667,
      "çļĦæĶ»åĩ»": 2668,
      "ä¹ĭä¸»": 2669,
      "ä¸Ńå·ŀ": 2670,
      "æĴ¼": 2671,
      "è¿ĺçľŁæĺ¯": 2672,
      "å¿µå¤´": 2673,
      "äºĨåķĬ": 2674,
      "ä¸įåĨį": 2675,
      "è¿ŀå¿Ļ": 2676,
      "éĺ´åĤĢ": 2677,
      "èĭ¦ç¬ĳ": 2678,
      "çļĦåħī": 2679,
      "æĭ¥æľī": 2680,
      "èµĭ": 2681,
      "è°ĥ": 2682,
      "ä¸Ģå¤´": 2683,
      "éģĵèº«å½±": 2684,
      "çļĦçĪ": 2685,
      "åĩĿåĽº": 2686,
      "èĢģé¬¼": 2687,
      "æ»´": 2688,
      "æĪ¿éĹ´": 2689,
      "äºĳå±±": 2690,
      "è§ĨçĿĢ": 2691,
      "æŀĹåĬ¨ä¹Łæĺ¯": 2692,
      "èĥ½åĬĽ": 2693,
      "å¢ĵ": 2694,
      "å½ĵåį³": 2695,
      "æ½®": 2696,
      "åŃĶ": 2697,
      "==": 2698,
      "çĪª": 2699,
      "éĹ¯": 2700,
      "ä¸Ģæı¡": 2701,
      "çľ¼çľ¸": 2702,
      "èĲ§åİī": 2703,
      "æĮº": 2704,
      "å¼Ģåı£": 2705,
      "å¤±è´¥": 2706,
      "åĩ¶æĤį": 2707,
      "æĮīçħ§": 2708,
      "çŁ³åı°": 2709,
      "æī¯": 2710,
      "ç³Ĭ": 2711,
      "æŁĲ": 2712,
      "åı¯ä¸įæĺ¯": 2713,
      "æİ¥è§¦": 2714,
      "çĥ§": 2715,
      "éģĹ": 2716,
      "æĸĹå°Ĭ": 2717,
      "âĢ¦âĢ¦ï¼Į": 2718,
      "åĪļæ¬²": 2719,
      "çĽĺåĿĲ": 2720,
      "èĢĢ": 2721,
      "ä¸įåı¯": 2722,
      "çĴ¨": 2723,
      "å®ĭ": 2724,
      "çĽ¸æ¯Ķ": 2725,
      "ç¿İ": 2726,
      "çļĦæĳĩäºĨæĳĩå¤´": 2727,
      "ä»ĸä¹Łæĺ¯": 2728,
      "çľĭå¾Ĺ": 2729,
      "æ¶Įçİ°": 2730,
      "èĻļç©º": 2731,
      "äºĳéŁµ": 2732,
      "ä¿ıèĦ¸": 2733,
      "ä»ħä»ħåıªæĺ¯": 2734,
      "é¡ºçĿĢ": 2735,
      "ä¸ĬéĿ¢": 2736,
      "çİĦåŁŁ": 2737,
      "§ç»¿": 2738,
      "åĩ¤": 2739,
      "èı©": 2740,
      "æĿĢæĦı": 2741,
      "æĩĴ": 2742,
      "å¯¹çĿĢèĲ§çĤİ": 2743,
      "åĬ«": 2744,
      "èµ·äºĨ": 2745,
      "èģĶæīĭ": 2746,
      "æŃ»æŃ»": 2747,
      "ç²ī": 2748,
      "çľĭçľĭ": 2749,
      "æīĢè°ĵçļĦ": 2750,
      "çĢ": 2751,
      "ä¸ĢæĢĶ": 2752,
      "ä¸¢": 2753,
      "çĶ©": 2754,
      "ä¸Ģéľİ": 2755,
      "ä¸įå°ı": 2756,
      "æĹıéķ¿": 2757,
      "ä¸¹å¡Ķ": 2758,
      "æŃ£åľ¨": 2759,
      "çªģçĦ¶éĹ´": 2760,
      "éĥ½æĺ¯è¢«": 2761,
      "åĤ¬": 2762,
      "ãĢĤâĢľâĢĿ": 2763,
      "æĶ»åĬ¿": 2764,
      "ç»Ł": 2765,
      "å¸Į": 2766,
      "å¯¹è§Ĩ": 2767,
      "å¤Ħäºİ": 2768,
      "è¶£": 2769,
      "è´µ": 2770,
      "å¥³åŃ©": 2771,
      "çļĦæ¨¡æł·": 2772,
      "å¥¥": 2773,
      "æ°ı": 2774,
      "æıĲåįĩ": 2775,
      "æĹ¦": 2776,
      "åľ¨è¿Ļç§į": 2777,
      "å¿ĥçģ«": 2778,
      "ä¸¤ä½į": 2779,
      "å¦ĥ": 2780,
      "¢å¤į": 2781,
      "ĢçĴ¨": 2782,
      "æīĭåį°": 2783,
      "çļĦæģĲ": 2784,
      "çļĦæļ´": 2785,
      "çĹķ": 2786,
      "äºĨåĲ§": 2787,
      "éĢģ": 2788,
      "æģ¶": 2789,
      "éĺ´åĨ·": 2790,
      "çĨŁæĤī": 2791,
      "!âĢĿ": 2792,
      "ä½łè¿Ļ": 2793,
      "åĴĨ": 2794,
      "æĪĳçļĦ": 2795,
      "ä¸īå¤§": 2796,
      "åĵ®": 2797,
      "è¯´è¿ĩ": 2798,
      "æ¶ħçĽĺå¢ĥ": 2799,
      "é¦Ļ": 2800,
      "å¥Ķ": 2801,
      "åķĨ": 2802,
      "ç»ıèĦī": 2803,
      "åİŁæĿ¥": 2804,
      "çľ¼ä¸ĭ": 2805,
      "èĤ¯": 2806,
      "éĩįè¦ģ": 2807,
      "éĽħå¦ĥ": 2808,
      "å¯ĤéĿĻ": 2809,
      "åĺ¶": 2810,
      "åĴĨåĵ®": 2811,
      "å¼ĥ": 2812,
      "ä¸ĢæĬĬ": 2813,
      "éĹ®é¢ĺ": 2814,
      "åĽĽäºº": 2815,
      "äºĨè¿ĩåİ»": 2816,
      "æĸ¹æīįèĥ½å¤Ł": 2817,
      "èĥĮåĲİ": 2818,
      "é¦ĸ": 2819,
      "ï¼ģï¼ģ": 2820,
      "æ³½": 2821,
      "çĦ¶åĲİä¾¿æĺ¯": 2822,
      "æŁĦ": 2823,
      "åĦ¡": 2824,
      "äºĨåĩł": 2825,
      "çļĦäºĭæĥħ": 2826,
      "ç¡®": 2827,
      "æīĢåľ¨": 2828,
      "ä¸įæĪĲ": 2829,
      "æĥ®": 2830,
      "å°±ç®Ĺ": 2831,
      "åĮ¹": 2832,
      "æİłåĩº": 2833,
      "å½»åºķçļĦ": 2834,
      "éĢ¼": 2835,
      "ç´ł": 2836,
      "éľĩå¤©": 2837,
      "åłª": 2838,
      "ä¸īåįĥ": 2839,
      "åħ¬": 2840,
      "æĮ¯": 2841,
      "æł¸": 2842,
      "åıįèĢĮ": 2843,
      "éĺ´åĤĢå®Ĺ": 2844,
      "çļĦæı": 2845,
      "æ»Ķ": 2846,
      "å½¢æĪĲ": 2847,
      "å¾Ĳå¾Ĳ": 2848,
      "çİĭæ®¿": 2849,
      "ä¹ĭæĦı": 2850,
      "åĲİæĸ¹": 2851,
      "æĢ¨": 2852,
      "èº²": 2853,
      "æĹĭè½¬": 2854,
      "å¥³çİĭ": 2855,
      "å¿Įæĥ®": 2856,
      "åľ°æŃ¥": 2857,
      "æĥħåĨµ": 2858,
      "çļĦå®¶ä¼Ļ": 2859,
      "è½»åı¹": 2860,
      "çļĦæ²": 2861,
      "åįĩèħ¾": 2862,
      "éŃĶæ°Ķ": 2863,
      "åħ¨éĥ¨": 2864,
      "æĬ¤æ³ķ": 2865,
      "çļĦä¸ĢäºĽ": 2866,
      "çŃĶ": 2867,
      "è·ĳ": 2868,
      "éľĩåĬ¨": 2869,
      "å¨ģåİĭ": 2870,
      "æĦ§": 2871,
      "å¸ĮæľĽ": 2872,
      "å°Ĩè¿Ļ": 2873,
      "åĢį": 2874,
      "èº«çĿĢ": 2875,
      "å¼ºå¤§çļĦ": 2876,
      "çļĦåľ°æŃ¥": 2877,
      "æķĳ": 2878,
      "åį³ä½¿": 2879,
      "é£İéĽ·": 2880,
      "æ¦ľ": 2881,
      "åĬłä¸Ĭ": 2882,
      "èĩªå·±çļĦ": 2883,
      "åĥµ": 2884,
      "åħ·å¤ĩ": 2885,
      "èı©æıĲ": 2886,
      "çļĦç¼ĺæķħ": 2887,
      "ãĢģ": 2888,
      "å¾ħå¾Ĺ": 2889,
      "çĴĢçĴ¨": 2890,
      "æĬĹè¡¡": 2891,
      "åľ¨æŃ¤æĹ¶": 2892,
      "åįł": 2893,
      "çº¤": 2894,
      "æĥĬéªĩ": 2895,
      "åĸĥåĸĥéģĵ": 2896,
      "çļĦæĺ¯": 2897,
      "åī¯": 2898,
      "çļĦèĦ¸åºŀ": 2899,
      "å¤§åĵ¥": 2900,
      "å¦Ļ": 2901,
      "æķ¬": 2902,
      "èĢĮéĤ£": 2903,
      "åĩĢèİ²": 2904,
      "è¡«": 2905,
      "æľīä»Ģä¹Ī": 2906,
      "å¿ĥçĤİ": 2907,
      "éľĩæĴ¼": 2908,
      "æ°ıå®ĹæĹı": 2909,
      "æ¯Ľ": 2910,
      "çķ¥æľīäºĽ": 2911,
      "ï¼ī": 2912,
      "ä»ĸä¾¿æĺ¯": 2913,
      "éĩĬ": 2914,
      "æĭ±": 2915,
      "éĴ»": 2916,
      "ä¸ĢæĹ¦": 2917,
      "æĥľ": 2918,
      "åĲįåŃĹ": 2919,
      "èĨĢ": 2920,
      "æļ´æİłèĢĮåĩº": 2921,
      "æľīç§į": 2922,
      "ï¼Łï¼ģâĢĿ": 2923,
      "æ»ŀ": 2924,
      "éª¤çĦ¶": 2925,
      "çĪĨçĤ¸": 2926,
      "æĬ¬èµ·å¤´": 2927,
      "èĲ½åľ¨": 2928,
      "ä¸ĸçķĮ": 2929,
      "ä¸Ģåıĺ": 2930,
      "äºĨä¸įå°ĳ": 2931,
      "åĲŀåĻ¬ç¥ĸç¬¦": 2932,
      "é¡ºåĪ©": 2933,
      "æľ¬äºĭ": 2934,
      "åĵ¦": 2935,
      "æģŃ": 2936,
      "å¤ļçļĦ": 2937,
      "åıĺå¹»": 2938,
      "åĩĦ": 2939,
      "å±Ī": 2940,
      "çĮ¿": 2941,
      "æĲŀ": 2942,
      "èĢĮè¿Ľ": 2943,
      "æŃ¤äºº": 2944,
      "çĲĨä¼ļ": 2945,
      "äºĨä»ĸ": 2946,
      "æĪı": 2947,
      "çĭ®": 2948,
      "èļĢ": 2949,
      "çģĮ": 2950,
      "çķ¥æĺ¾": 2951,
      "æĦŁåıĹåĪ°": 2952,
      "åĵĪåĵĪ": 2953,
      "åªļ": 2954,
      "æŀĹåķ¸": 2955,
      "åħĪçĶŁ": 2956,
      "éª¨éª": 2957,
      "æĭĸ": 2958,
      "è¡ĢèĦī": 2959,
      "ç¬¬ä¸Ģæ¬¡": 2960,
      "æĮģç»ŃäºĨ": 2961,
      "è·ĥ": 2962,
      "ä¸įçĶ¨": 2963,
      "ä¸Ģå¼ł": 2964,
      "èĢĲ": 2965,
      "ä¸Ńå¹´": 2966,
      "ä»°": 2967,
      "éĽĨ": 2968,
      "å¸¦èµ·": 2969,
      "æ³ĽçĿĢ": 2970,
      "æ²īé»ĺ": 2971,
      "èķ´åĲ«çĿĢ": 2972,
      "å¼Ħ": 2973,
      "æŀĹéľĩå¤©": 2974,
      "äºĪ": 2975,
      "éĤ£çŃī": 2976,
      "ä¹ĭä¸Ģ": 2977,
      "èĢĮè¿ĩ": 2978,
      "åı¤æ²³": 2979,
      "æĳ©": 2980,
      "çģµéŃĤåĬĽéĩı": 2981,
      "å¤§åľ°": 2982,
      "çīĮ": 2983,
      "å°½å¤´": 2984,
      "è¾¾åĪ°äºĨ": 2985,
      "åĲ¯": 2986,
      "éĹ¹": 2987,
      "æĪĲå½¢": 2988,
      "åĩºçİ°äºĨ": 2989,
      "å»º": 2990,
      "èĲ§çĤİçŃīäºº": 2991,
      "è½¯": 2992,
      "è¿ĻäºĽå¹´": 2993,
      "èĢ¸": 2994,
      "å¤§å¤ļ": 2995,
      "åĿı": 2996,
      "äº¡": 2997,
      "ç¥¨": 2998,
      "èħ¿": 2999,
      "åĻĹ": 3000,
      "æĴĩ": 3001,
      "ç£¨": 3002,
      "ä¾ĿæĹ§æĺ¯": 3003,
      "ç¨Ģ": 3004,
      "æİ¨": 3005,
      "åħīæŁ±": 3006,
      "Ġå½ĵ": 3007,
      "å£®": 3008,
      "éĵ¶èī²": 3009,
      "åĴ¬çīĻ": 3010,
      "å¤§å¸Ī": 3011,
      "åŀĤ": 3012,
      "ä¹ĥ": 3013,
      "çİ¯": 3014,
      "åĲĲäºĨä¸Ģåı£æ°Ķ": 3015,
      "çļĦç²¾ç¥ŀåĬĽ": 3016,
      "ä¾¿æĺ¯è¢«": 3017,
      "ä»¤å¾Ĺä»ĸ": 3018,
      "æ¸Ĭ": 3019,
      "åĨ·ç¬ĳéģĵ": 3020,
      "å¾Īå¤ļ": 3021,
      "èĪŀ": 3022,
      "ä»İéĤ£": 3023,
      "æĳĬ": 3024,
      "çļĦéĽ·": 3025,
      "å¼§": 3026,
      "æĸĹçİĭ": 3027,
      "éĹªçİ°": 3028,
      "ä¹Łä¼ļ": 3029,
      "å¤©èµĭ": 3030,
      "èĥĨ": 3031,
      "æ¡Ģ": 3032,
      "éªĤ": 3033,
      "æıĴ": 3034,
      "å¼ı": 3035,
      "ä¹Łæĺ¯æľīäºĽ": 3036,
      "æĥ³è±¡": 3037,
      "ç½ĳ": 3038,
      "éĻ¨èĲ½å¿ĥçĤİ": 3039,
      "çļĦä»ĸ": 3040,
      "ä¸ĢèĦ¸": 3041,
      "éĢļéģĵ": 3042,
      "å¼¥æ¼«çĿĢ": 3043,
      "æķĻ": 3044,
      "ç¼Ń": 3045,
      "å®Ĺä¸»": 3046,
      "èĤ¤": 3047,
      "éĩįéĩįçļĦ": 3048,
      "æ®¿ä¸»": 3049,
      "èĭįèĢģ": 3050,
      "éĢīæĭ©": 3051,
      "ä¸įåıĬ": 3052,
      "è½´": 3053,
      "Ġè½°": 3054,
      "çļĦæĴ": 3055,
      "ç»ĵæŀľ": 3056,
      "çĪ¶": 3057,
      "å¯»æī¾": 3058,
      "èĲ§çĤİéĤ£": 3059,
      "ä¸Ģåº§": 3060,
      "ä¸įå°ıçļĦ": 3061,
      "ç©Ĩ": 3062,
      "æģ¢å¤į": 3063,
      "æ²¡ä»Ģä¹Ī": 3064,
      "èĬľ": 3065,
      "åį·è½´": 3066,
      "æ·±åĲ¸": 3067,
      "æģĲæĢĸçļĦ": 3068,
      "éĤ£ä¾¿": 3069,
      "ä»¥å¾Ģ": 3070,
      "ä¸īå¹´": 3071,
      "åĸī": 3072,
      "å¢Ļ": 3073,
      "åİīå®³": 3074,
      "åįĬç©ºä¸Ń": 3075,
      "æĸ©": 3076,
      "åĽŀæĿ¥": 3077,
      "æŀľçĦ¶æĺ¯": 3078,
      "ç¬¦æĸĩ": 3079,
      "æīĭä¸ŃçļĦ": 3080,
      "è°ģéĥ½": 3081,
      "çº¦èİ«": 3082,
      "æĦĪåıĳ": 3083,
      "åį«": 3084,
      "æ°ĶåĬ¿": 3085,
      "äºĨéĤ£": 3086,
      "çİ©": 3087,
      "çļĦçĻ½": 3088,
      "æļĤ": 3089,
      "åĽŀåİ»": 3090,
      "ä¸Ģè¾Ī": 3091,
      "åıªå¾Ĺ": 3092,
      "çķĻä¸ĭ": 3093,
      "çļĦæ¶Į": 3094,
      "ä¸Ģæĭ³": 3095,
      "å¯¹ä»ĺ": 3096,
      "åĢŁåĬ©": 3097,
      "ç®Ģåįķ": 3098,
      "èĢĮåľ¨": 3099,
      "çŁ³ç¬¦": 3100,
      "ç«Ļåľ¨": 3101,
      "è¾£": 3102,
      "éªĮ": 3103,
      "å¥¹çļĦ": 3104,
      "åľ¨å¿ĥä¸Ń": 3105,
      "æĪŁ": 3106,
      "ç¬ĳçĿĢçĤ¹äºĨçĤ¹å¤´": 3107,
      "ĹéĢı": 3108,
      "å°ıå®¶ä¼Ļ": 3109,
      "éķ¿çļĦ": 3110,
      "çĽ¸ä¿¡": 3111,
      "æĹłäºº": 3112,
      "éĿ¢åīįçļĦ": 3113,
      "åħ»": 3114,
      "ä¹Łæĺ¯åľ¨æŃ¤åĪ»": 3115,
      "éŃħ": 3116,
      "åĶī": 3117,
      "æ¼«å¤©": 3118,
      "æµ®çİ°ä¸ĢæĬ¹": 3119,
      "çł¸": 3120,
      "ä½İå£°": 3121,
      "å®ĥä»¬": 3122,
      "çļĦæģĲæĢĸ": 3123,
      "éĢĶ": 3124,
      "åĩ¡": 3125,
      "çĤİåŁİ": 3126,
      "çģµå®Ŀ": 3127,
      "å¯¹çĿĢéĤ£": 3128,
      "éĹ²": 3129,
      "ä¹Łæĺ¯è¢«": 3130,
      "æĪĳä¼ļ": 3131,
      "ä½ĨéĤ£": 3132,
      "ä»¿ä½Ľæĺ¯": 3133,
      "æĸ°çĶŁ": 3134,
      "èĤ©èĨĢ": 3135,
      "ä¹ĭçī©": 3136,
      "çıĬ": 3137,
      "è®½": 3138,
      "é«ĺçº§": 3139,
      "ä¸Ģå¤Ħ": 3140,
      "ç§Ģ": 3141,
      "éĿĴèī²": 3142,
      "èĦ¸åºŀä¸ĬçļĦ": 3143,
      "å¾®çļ±": 3144,
      "åĶ°": 3145,
      "åĩĢèİ²å¦ĸçģ«": 3146,
      "ĠèĢĮåľ¨": 3147,
      "é¡¶å°ĸ": 3148,
      "æł¼å¤ĸ": 3149,
      "åĬ¨éĿĻ": 3150,
      "çļĦçŀ": 3151,
      "åģ·": 3152,
      "åĢĴä¹Ł": 3153,
      "çļĦçĽ®åħīä¸Ń": 3154,
      "æ¶²ä½ĵ": 3155,
      "è¿ĺçľŁ": 3156,
      "æĽ´åĬł": 3157,
      "çļĦä¸Ģå£°": 3158,
      "åĩºå£°": 3159,
      "ç»ª": 3160,
      "åįģåĩł": 3161,
      "åŀĭ": 3162,
      "è¯§å¼Ĥ": 3163,
      "é¾ĻæĹı": 3164,
      "ä¸Ŀæ¯«ä¸į": 3165,
      "æ»Ķå¤©": 3166,
      "å®½": 3167,
      "æİĢ": 3168,
      "èĽĭ": 3169,
      "é¢Ĺ": 3170,
      "çŃīçº§": 3171,
      "èħ°": 3172,
      "æ½Ń": 3173,
      "çģµçıĬ": 3174,
      "åĲ¬åĪ°": 3175,
      "çĢļ": 3176,
      "è´Ŀ": 3177,
      "è¿ĻäºĽäºº": 3178,
      "çĶŁçĶŁçļĦ": 3179,
      "èĢĮéļıçĿĢ": 3180,
      "åįĹåŃ¦éĻ¢": 3181,
      "éļ¾çľĭ": 3182,
      "çĲĥ": 3183,
      "ç£Ĳ": 3184,
      "æĭħå¿ĥ": 3185,
      "çŀª": 3186,
      "åħ´è¶£": 3187,
      "ä¸įä¹ħ": 3188,
      "ä¸ĬäºĨ": 3189,
      "æĦ¿": 3190,
      "éĵ¾": 3191,
      "çĺ¦": 3192,
      "éĤ£æĺ¯": 3193,
      "è¿ĺè¦ģ": 3194,
      "åİĭåĪ¶": 3195,
      "çł°çł°": 3196,
      "çļĦæ¸©": 3197,
      "ä¸Ģåıª": 3198,
      "è¿Ľåİ»": 3199,
      "èµ°åĩº": 3200,
      "è¿¦": 3201,
      "å¤§å®¶": 3202,
      "ä½łæĺ¯": 3203,
      "è¾ĥ": 3204,
      "å·®è·Ŀ": 3205,
      "Ġï¼Ī": 3206,
      "åĬ¨çļĦ": 3207,
      "æĿ¥åĪ°": 3208,
      "å¤©ç©ºä¹ĭä¸Ĭ": 3209,
      "æ£®çĦ¶": 3210,
      "å¤§æĪĲ": 3211,
      "éĻĲ": 3212,
      "ä¸Īåºŀå¤§çļĦ": 3213,
      "çļĦä¿®çĤ¼": 3214,
      "åĪĽ": 3215,
      "æ¶Ľ": 3216,
      "éŃı": 3217,
      "éĻĮ": 3218,
      "é¡¾": 3219,
      "åģ¶": 3220,
      "ç½¢": 3221,
      "ä¼łæī¿": 3222,
      "çĪĨè£Ĥ": 3223,
      "ä¼¼ä¹İæĺ¯": 3224,
      "èĭ¥éĿŀ": 3225,
      "è¯´ä»Ģä¹Ī": 3226,
      "åı·": 3227,
      "æīĺ": 3228,
      "ç´§éĹŃ": 3229,
      "æĥĬå¤©": 3230,
      "æ¼ª": 3231,
      "åı¯ä¸į": 3232,
      "åĬ²æ°Ķ": 3233,
      "é½¿": 3234,
      "è¿Ļä¸¤": 3235,
      "åĲİéĢĢ": 3236,
      "éĩİ": 3237,
      "æĸĹåľ£": 3238,
      "éļıæĦı": 3239,
      "è¯¸å¤ļ": 3240,
      "å±±æ´ŀ": 3241,
      "åĩłäºº": 3242,
      "çļ®èĤ¤": 3243,
      "çļĦå·¨": 3244,
      "äººé©¬": 3245,
      "åĬłåĪĹ": 3246,
      "çĶĺ": 3247,
      "æĸĹå¸Ī": 3248,
      "éļ¾æĢª": 3249,
      "ä½İå£°éģĵ": 3250,
      "çļĦæ¶ħ": 3251,
      "åĲĦèĩª": 3252,
      "Ġå°±åľ¨": 3253,
      "åĴ¬çĿĢ": 3254,
      "çĦļå¤©": 3255,
      "çĤİè°·": 3256,
      "ä¼ĺ": 3257,
      "å¤©å¸Ŀ": 3258,
      "åĸĦ": 3259,
      "èī³": 3260,
      "éļĶ": 3261,
      "æĻ®": 3262,
      "ä¼¤åĬ¿": 3263,
      "çļĦæĿĢ": 3264,
      "æļ´æ¶¨": 3265,
      "ç¼Ńç»ķ": 3266,
      "çļĦçģ«çĦ°": 3267,
      "ä¹ĭäºĭ": 3268,
      "åĨĴ": 3269,
      "ä¸ºä½ķ": 3270,
      "èĪį": 3271,
      "è¿¦åįĹåŃ¦éĻ¢": 3272,
      "çļĦæ³¨è§Ĩä¸ĭ": 3273,
      "æ¶¡": 3274,
      "è®©æĪĳ": 3275,
      "ç¢§ç»¿": 3276,
      "è²Į": 3277,
      "æ±Ĺ": 3278,
      "ä¸īåįģ": 3279,
      "èĢĮåħ¶": 3280,
      "è§ģè¿ĩ": 3281,
      "é»ĳåħī": 3282,
      "è®©ä½ł": 3283,
      "è¿ĳä¹İ": 3284,
      "Ġå½ĵçĦ¶": 3285,
      "æĿĥ": 3286,
      "å°ıæĹ¶": 3287,
      "åĬĪ": 3288,
      "éĤ£å®¶ä¼Ļ": 3289,
      "æīİ": 3290,
      "åĨįåĬłä¸Ĭ": 3291,
      "éľĩå¾Ĺ": 3292,
      "ç¥ŀçī©": 3293,
      "çļĦäººå½±": 3294,
      "å¤©é¾Ļ": 3295,
      "åĩłä¸ª": 3296,
      "æ£®æŀĹ": 3297,
      "ä¼ļè¢«": 3298,
      "çļĦéĤ£ç§į": 3299,
      "è¿·": 3300,
      "è¾ĵ": 3301,
      "åĴĻ": 3302,
      "æĺŁéĻ¨": 3303,
      "ç«Ļèµ·èº«": 3304,
      "åģıå¤´": 3305,
      "å¤©å¦ĸè²Ĥ": 3306,
      "æ¤": 3307,
      "ä¼ļæĺ¯": 3308,
      "æ³¥": 3309,
      "å¢ŀ": 3310,
      "ä¿ĿæĮģ": 3311,
      "åĽ°éļ¾": 3312,
      "èº«ä½ĵä¸Ĭ": 3313,
      "ä¸ľçİĦåŁŁ": 3314,
      "çĶ±äºİ": 3315,
      "éĢłæĪĲ": 3316,
      "é¢Ŀå¤´": 3317,
      "è§ĳ": 3318,
      "èĮ«": 3319,
      "éĺ¶åĪ«": 3320,
      "åľ°éĿ¢ä¸Ĭ": 3321,
      "è¯ĿéŁ³": 3322,
      "åı¤æĢª": 3323,
      "åķ§": 3324,
      "æ´Ĵ": 3325,
      "çİīçĵ¶": 3326,
      "æĸĹå®Ĺå¼ºèĢħ": 3327,
      "åı¤åħĥ": 3328,
      "è¿Ļä¹Īå¤ļå¹´": 3329,
      "è¿¹è±¡": 3330,
      "åĸīåĴĻ": 3331,
      "ä»ĸçŁ¥éģĵ": 3332,
      "éĽ¶": 3333,
      "æĮ¡": 3334,
      "é£ŀå¿«çļĦ": 3335,
      "ä¸įåĲĮ": 3336,
      "å±ŀäºİ": 3337,
      "éŃĤå¤©å¸Ŀ": 3338,
      "ä¸ĢèĤ¡èĤ¡": 3339,
      "çļĦéľİéĤ£": 3340,
      "æĪĳä¹Ł": 3341,
      "æĹĭåį³ä»ĸ": 3342,
      "ç»ĻäºĪ": 3343,
      "åħ¨åĬĽ": 3344,
      "æ·¡æ·¡ä¸Ģç¬ĳ": 3345,
      "çıł": 3346,
      "çĩ": 3347,
      "æĥĬè®¶": 3348,
      "Ġåľ¨èĲ§çĤİ": 3349,
      "Ġï¼Į": 3350,
      "ç§¯": 3351,
      "å§ľ": 3352,
      "ä¸ĩéĩĳ": 3353,
      "æķĽ": 3354,
      "æ¨¡ç³Ĭ": 3355,
      "çļĦåŃĺåľ¨": 3356,
      "å²³": 3357,
      "æºĥ": 3358,
      "æŁ³æĵİ": 3359,
      "çļĦçł´": 3360,
      "çĽ¸å½ĵçļĦ": 3361,
      "©æ¶¡": 3362,
      "æīĳ": 3363,
      "åĴ§": 3364,
      "æļ´å°Ħ": 3365,
      "æįŁ": 3366,
      "çĤ¹çĤ¹å¤´": 3367,
      "æ¸ĹéĢı": 3368,
      "ç»ıåİĨ": 3369,
      "çĸ¼": 3370,
      "åıĮæĸ¹": 3371,
      "åİĭè¿«": 3372,
      "æĺŁéĻ¨éĺģ": 3373,
      "ä¸¸": 3374,
      "ä¹ĭæĦŁ": 3375,
      "ä¸įæĦ§": 3376,
      "æ²¸": 3377,
      "åĳĪ": 3378,
      "çļĦç¾İ": 3379,
      "åıĳåĩº": 3380,
      "æĥ¹": 3381,
      "éĺ´å¯Ĵ": 3382,
      "æ¶ĪèĢĹ": 3383,
      "çī¹åĪ«": 3384,
      "è¯¡å¼ĤçļĦ": 3385,
      "æĹłçĸĳæĺ¯": 3386,
      "å®¢æ°Ķ": 3387,
      "å¤ı": 3388,
      "æĪª": 3389,
      "é¾Ħ": 3390,
      "èĥ¡": 3391,
      "ç®ĢçĽ´": 3392,
      "ä¸¤çĻ¾": 3393,
      "çľ¨çľ¼": 3394,
      "è¿İ": 3395,
      "ä¸Ĭç©º": 3396,
      "è½»å£°": 3397,
      "å§ļ": 3398,
      "çļĦçĪĨ": 3399,
      "Łæ¼ª": 3400,
      "å¤®": 3401,
      "çĤİçİĭæľĿ": 3402,
      "ä½łä¹Ł": 3403,
      "ä»İåħ¶": 3404,
      "çªĥ": 3405,
      "åĲİéĿ¢": 3406,
      "åľ¨è¿Ļçīĩ": 3407,
      "éĢłåĮĸå¢ĥ": 3408,
      "ç¼ĵæŃ¥": 3409,
      "éļĲçº¦": 3410,
      "æĤĦæĤĦ": 3411,
      "çļĦéĿĴå¹´": 3412,
      "ä¾¿æĺ¯æľīçĿĢ": 3413,
      "éĥ½æĺ¯æľīäºĽ": 3414,
      "åįĬä¸ª": 3415,
      "èłķ": 3416,
      "åĪ¹": 3417,
      "å¼ĢåĲ¯": 3418,
      "ä¸īä½į": 3419,
      "èħ¥": 3420,
      "åı°ä¸Ĭ": 3421,
      "ä¼Ĳ": 3422,
      "æĤ¨": 3423,
      "æµĵæµĵ": 3424,
      "äºĨè¿ĩæĿ¥": 3425,
      "éĤ£åĲį": 3426,
      "çļĦæ£": 3427,
      "è¶³è¶³": 3428,
      "éĢıçĿĢ": 3429,
      "è¿Ĳè½¬": 3430,
      "æĻĭåħ¥": 3431,
      "èµ·ä¸ĢæĬ¹": 3432,
      "çĭ±": 3433,
      "åĻ¨": 3434,
      "å±ĢéĿ¢": 3435,
      "åĶ¯æľī": 3436,
      "æļ´å°ĦèĢĮåĩº": 3437,
      "æĤŁ": 3438,
      "åºĶç¬ĳç¬ĳ": 3439,
      "çĸĳæĥĳ": 3440,
      "åĲ´æĺĬ": 3441,
      "æ¶İ": 3442,
      "å°±è¿ŀ": 3443,
      "é£İå£°": 3444,
      "æĪĺåľº": 3445,
      "å¤įæĿĤ": 3446,
      "åı¬": 3447,
      "ä¾¿æĺ¯å°Ĩ": 3448,
      "åĢ¼": 3449,
      "ç¼ĵç¼ĵçļĦéģĵ": 3450,
      "èµ°åĲ§": 3451,
      "èĽ®": 3452,
      "åĿļæĮģ": 3453,
      "ä¸Ģå®ļ": 3454,
      "ä¸ĭäºĨ": 3455,
      "éŃĶæµ·": 3456,
      "åįģæķ°": 3457,
      "æīĵè´¥": 3458,
      "çĶļèĩ³è¿ŀ": 3459,
      "å¾®å¾®çĤ¹äºĨçĤ¹å¤´": 3460,
      "ä¹Ŀå¤©": 3461,
      "è®¤ä¸º": 3462,
      "æĬķåĲĳ": 3463,
      "æĹłæķ°éģĵçĽ®åħī": 3464,
      "æĳ©ç½Ĺ": 3465,
      "çļĦå¿ĥ": 3466,
      "èĲ§çİĦ": 3467,
      "è¯±": 3468,
      "è¿Ļä¸ªå®¶ä¼Ļ": 3469,
      "åıĹåĪ°": 3470,
      "çļĦæīĭæİĮ": 3471,
      "è¦Ĩ": 3472,
      "æ¶Įåĩº": 3473,
      "è½°çĦ¶": 3474,
      "æĿĢäºĨ": 3475,
      "ä¹Łåıªèĥ½": 3476,
      "åħ¶ä»ĸçļĦ": 3477,
      "å¹´æĹ¶éĹ´": 3478,
      "å±ħçĦ¶æĺ¯": 3479,
      "éĻĦ": 3480,
      "æ®Ĭ": 3481,
      "è½¬è½®": 3482,
      "äºĶåįģ": 3483,
      "çļ±çľī": 3484,
      "æĮ¥æīĭ": 3485,
      "æľµ": 3486,
      "åĴĶ": 3487,
      "ç´§æİ¥çĿĢ": 3488,
      "ç²Ĺ": 3489,
      "æħİ": 3490,
      "æī«äºĨ": 3491,
      "å±ĪæĮĩ": 3492,
      "çļĦçĤ¹äºĨçĤ¹å¤´": 3493,
      "å¾®ç¬ĳéģĵ": 3494,
      "çī¢": 3495,
      "åĺ²": 3496,
      "ç½ª": 3497,
      "ç¡ķ": 3498,
      "ãĢĮ": 3499,
      "çľ¼ä¸Ńä¹Łæĺ¯": 3500,
      "è½¦": 3501,
      "æĥĬäºº": 3502,
      "åĪ«äºº": 3503,
      "åıįèĢĮæĺ¯": 3504,
      "ä¸įæĦ§æĺ¯": 3505,
      "åĽŀè¿ĩ": 3506,
      "éªĩçĦ¶": 3507,
      "äºĨä¹Ī": 3508,
      "è¿Ļçķª": 3509,
      "æľīä¸Ŀæ¯«": 3510,
      "è®¡": 3511,
      "å¤©çģ«å°ĬèĢħ": 3512,
      "ç¯": 3513,
      "åľ¨åħ¶ä¸Ń": 3514,
      "æī¹": 3515,
      "ä¸Ńå¿ĥ": 3516,
      "å¯¹ä»ĸ": 3517,
      "éĽ¨": 3518,
      "ä½ľçĶ¨": 3519,
      "æĢİä¹Īåı¯èĥ½": 3520,
      "éĹªçĥģçĿĢ": 3521,
      "ä¸Ģç¼ķ": 3522,
      "éģ®": 3523,
      "ç¬Ķ": 3524,
      "ä¾¿èµ°": 3525,
      "å¥ĭ": 3526,
      "æ¶©": 3527,
      "åĨ°å¯Ĵ": 3528,
      "è²ī": 3529,
      "èĨĽ": 3530,
      "é¥°": 3531,
      "ä¸įä¸Ĭ": 3532,
      "ä¼¸åĩº": 3533,
      "åľĨæ»¡": 3534,
      "ä¹Ĳ": 3535,
      "åħīåĽ¢": 3536,
      "è®®": 3537,
      "ä¹Łä¸įä¼ļ": 3538,
      "å¸ĥæ»¡çĿĢ": 3539,
      "Ġä¼´éļıçĿĢ": 3540,
      "åķ¦": 3541,
      "ä¾ĿéĿł": 3542,
      "ä¹Łç®Ĺæĺ¯": 3543,
      "å¤§çĤİçİĭæľĿ": 3544,
      "è¯´ä¸įå®ļ": 3545,
      "ä¸īä¸ª": 3546,
      "æ¶Īæģ¯": 3547,
      "åıĸå¾Ĺ": 3548,
      "çĨĬ": 3549,
      "æİ§åĪ¶": 3550,
      "åĵįå½»èĢĮèµ·": 3551,
      "çŀ¥äºĨä¸Ģçľ¼": 3552,
      "çķı": 3553,
      "è¡Įäºº": 3554,
      "çļĦæ´": 3555,
      "æ¶¦": 3556,
      "å¿ĥèİ²": 3557,
      "ä½Ĩæĺ¯": 3558,
      "æĻļ": 3559,
      "å²ģ": 3560,
      "å¤ªå¤ļ": 3561,
      "æĬĵä½ı": 3562,
      "çļĦåľ¨": 3563,
      "ä¸ĢåĪ»": 3564,
      "è¿Ļéģĵ": 3565,
      "éĩįä¼¤": 3566,
      "ç¾İçľ¸": 3567,
      "æ¯ģçģŃ": 3568,
      "éģį": 3569,
      "ä¸Ńå¤®": 3570,
      "èİ«åĩĮ": 3571,
      "æŀĹæ°ıå®ĹæĹı": 3572,
      "å¤§äºº": 3573,
      "äºĨä¸Ģéģĵ": 3574,
      "çľĭè¿Ļ": 3575,
      "çŀŁ": 3576,
      "è®©å¾ĹèĲ§çĤİ": 3577,
      "æµ©çĢļ": 3578,
      "æĬ¿": 3579,
      "å¥½å¤Ħ": 3580,
      "éĿĴé³ŀ": 3581,
      "éĺµéĺµ": 3582,
      "ç¿¼ç¿¼": 3583,
      "æ¹ĸ": 3584,
      "ä¸ĢåĽ¢": 3585,
      "çľĭä¼¼": 3586,
      "åĵĳ": 3587,
      "æ·¡æ¼ł": 3588,
      "åĮºåŁŁ": 3589,
      "ä¾¿æĺ¯åľ¨": 3590,
      "é¢ĸ": 3591,
      "æĦķçĦ¶": 3592,
      "é»ĳæ´ŀ": 3593,
      "åı¯æĢķçļĦ": 3594,
      "å½©é³ŀ": 3595,
      "å°ıå¿ĥç¿¼ç¿¼": 3596,
      "ä¸ĢæĹ¶éĹ´": 3597,
      "æ¸¸": 3598,
      "éĿĴåħī": 3599,
      "çĬ¸": 3600,
      "äºĶçĻ¾": 3601,
      "ä¹ĭåľ°": 3602,
      "èĲ§çĤİçĽ®åħī": 3603,
      "å¤´é¡¶": 3604,
      "äºĨä¸Ģä¼ļ": 3605,
      "è¡Įåİ»": 3606,
      "å¤©ç©ºä¸ĬçļĦ": 3607,
      "å®Įç¾İ": 3608,
      "æĬµå¾¡": 3609,
      "ä½ĵåĨħçļĦ": 3610,
      "é»¯": 3611,
      "æ¼©æ¶¡": 3612,
      "çļĦæĦŁ": 3613,
      "åĽŀè¿ĩç¥ŀ": 3614,
      "çļĦåĬ¿åĬĽ": 3615,
      "èĲ§é¼İ": 3616,
      "èº«ä¸º": 3617,
      "è¿ĺæľª": 3618,
      "å¹¶ä¸įæĺ¯": 3619,
      "è±«": 3620,
      "æ¥¼": 3621,
      "æºĲæºĲ": 3622,
      "çİĩåħĪ": 3623,
      "å¤¹": 3624,
      "ä¼į": 3625,
      "åīįè¾Ī": 3626,
      "éĿĴèİ²": 3627,
      "éĽ·åħī": 3628,
      "åħĥèĭį": 3629,
      "çļĦæĶ¶": 3630,
      "çļĦä¸¹èį¯": 3631,
      "åį´æĺ¯çªģçĦ¶": 3632,
      "éĶĻæĦķ": 3633,
      "ä¾µèļĢ": 3634,
      "åįĬæĻĮåĲİ": 3635,
      "åħ¶ä½Ļ": 3636,
      "æ¯«ä¸į": 3637,
      "åĵģçĤ¼èį¯å¸Ī": 3638,
      "åĩŃåĢŁçĿĢ": 3639,
      "ä¸ĢæĦ£": 3640,
      "çļĦæŁ": 3641,
      "èįī": 3642,
      "æŃ¤æĹ¶çļĦ": 3643,
      "èĲ§çİī": 3644,
      "ç®Ń": 3645,
      "çļĦè¯Ŀè¯Ń": 3646,
      "æĹłæķ°äºº": 3647,
      "æĪĺæĸĹåĬĽ": 3648,
      "éĺŁä¼į": 3649,
      "éĤ£å¼ł": 3650,
      "åĲ¸å¼ķ": 3651,
      "åıĸåĩº": 3652,
      "å¹´é¾Ħ": 3653,
      "æĹıçļĦ": 3654,
      "æĥĬæĦķ": 3655,
      "èįĴæ®¿": 3656,
      "ç±»ä¼¼": 3657,
      "æīĩ": 3658,
      "åĸľæ¬¢": 3659,
      "æĺ¯åĽłä¸º": 3660,
      "åħīæĺ¯": 3661,
      "äºĨä¸ĢçĤ¹": 3662,
      "é£İå°ĬèĢħ": 3663,
      "æħķçģµçıĬ": 3664,
      "Ġè¿Ļç§į": 3665,
      "æľ«": 3666,
      "å¾®çľ¯": 3667,
      "é£ŀæİł": 3668,
      "åı¹æģ¯": 3669,
      "èĥĮå½±": 3670,
      "çī¹æ®Ĭ": 3671,
      "Ġå¿ĥä¸Ń": 3672,
      "è¿ħéĢŁçļĦ": 3673,
      "çļĦæ¸ħ": 3674,
      "èĲ§çĤİå¿ĥä¸Ń": 3675,
      "æĦŁåıĹçĿĢ": 3676,
      "éħį": 3677,
      "å¤©é¾Ļå¦ĸå¸ħ": 3678,
      "å¤§éĹ¨": 3679,
      "æľīçĿĢä¸Ģç§į": 3680,
      "åıĺæķħ": 3681,
      "çķ¥ä½ľ": 3682,
      "å¾Īæĺ¯": 3683,
      "çľ¯çľ¯": 3684,
      "åģıè¿ĩå¤´": 3685,
      "ç«Ļèµ·èº«æĿ¥": 3686,
      "æĪĳæĥ³": 3687,
      "åŁº": 3688,
      "ä½ķçŃī": 3689,
      "ä¸İåħ¶": 3690,
      "è®©ä»ĸ": 3691,
      "å¯ĴæĦı": 3692,
      "èĥ¸èĨĽ": 3693,
      "çļĦåĳ³éģĵ": 3694,
      "è½©": 3695,
      "çİĭéĺİ": 3696,
      "æļĹä¸Ń": 3697,
      "æī«äºĨæī«": 3698,
      "ç¬ĳçľ¯çľ¯": 3699,
      "æĭĴ": 3700,
      "åĴ³": 3701,
      "åįĬæŃ¥": 3702,
      "éĿ¢èī²ä¹Łæĺ¯": 3703,
      "ä¸įåĩº": 3704,
      "èĻ«": 3705,
      "åıĮç¿¼": 3706,
      "åĺ´åĶĩ": 3707,
      "å¹´è½»ä¸Ģè¾Ī": 3708,
      "éĤ£å°±": 3709,
      "ä¹Łæĺ¯èĥ½å¤Ł": 3710,
      "å¥ĩçī¹": 3711,
      "çļĦæĭ³": 3712,
      "çļĦæ¶ħçĽĺ": 3713,
      "æĶ¾åľ¨": 3714,
      "èĦ¸é¢Ĭä¸Ĭ": 3715,
      "çļĦæ·±": 3716,
      "ä½£åħµåĽ¢": 3717,
      "åģ¶å°Ķ": 3718,
      "æī§": 3719,
      "éĺĶ": 3720,
      "æģ¨": 3721,
      "åĳ¼åĲ¸": 3722,
      "åĲŀåĻ¬ä¹ĭåĬĽ": 3723,
      "æ¢¦": 3724,
      "è¶ħçº§å®Ĺæ´¾": 3725,
      "äºĨæĭį": 3726,
      "å¼¯": 3727,
      "èº«èº¯": 3728,
      "å±ł": 3729,
      "èĩªè¯Ń": 3730,
      "åľ¨éĤ£éĩĮ": 3731,
      "å¨ĺ": 3732,
      "éĥ½ä¼ļ": 3733,
      "åĽĽåįģ": 3734,
      "çĪ¶äº²": 3735,
      "ĠéĿ¢å¯¹çĿĢ": 3736,
      "åħīå½±": 3737,
      "é»ĳè¡£": 3738,
      "ä¹ĭä¸ĬçļĦ": 3739,
      "æ¸ħæĻ": 3740,
      "å¤±åİ»äºĨ": 3741,
      "é»Ħæ³ī": 3742,
      "çļĦæĶ»åĬ¿": 3743,
      "åĶĲå¿ĥèİ²": 3744,
      "çĶ°": 3745,
      "æĬĳ": 3746,
      "è¡Ģèī²": 3747,
      "éĢĢåĲİ": 3748,
      "åŃ¦åĳĺ": 3749,
      "ä¸ĥå½©": 3750,
      "å°ĸéĶĲ": 3751,
      "éļĨéļĨ": 3752,
      "èĪĮ": 3753,
      "æŁĵ": 3754,
      "è¡¨æĥħ": 3755,
      "ĠçĽ®åħī": 3756,
      "æľ¬èº«": 3757,
      "æ¤ħ": 3758,
      "£æīİ": 3759,
      "æľĭ": 3760,
      "æ¶Łæ¼ª": 3761,
      "çļĦçª": 3762,
      "è¡Ģçº¢": 3763,
      "åĤĢåĦ¡": 3764,
      "æŃ¤äºĭ": 3765,
      "éĿĴéĺ³": 3766,
      "ç¬¦åĤĢ": 3767,
      "è¸ıåħ¥": 3768,
      "æĪ¾": 3769,
      "å¿ĺ": 3770,
      "ä¸ºä»Ģä¹Ī": 3771,
      "è®¸ä¹ħ": 3772,
      "çļĦè¿¹è±¡": 3773,
      "èĢĥ": 3774,
      "æĿ¥çľĭ": 3775,
      "å°ĨçĽ®åħī": 3776,
      "å¹³æ·¡": 3777,
      "èĽĩäºº": 3778,
      "ç¾İæĿľèİİå¥³çİĭ": 3779,
      "é»ĳéĽ¾": 3780,
      "åıĺæĪĲ": 3781,
      "èł¢": 3782,
      "ä½Ĩä»ĸ": 3783,
      "å¥½å¥ĩ": 3784,
      "ç¬¬ä¹Ŀ": 3785,
      "èĢĮæĪĲ": 3786,
      "è¢Ń": 3787,
      "éĥ½æĺ¯åľ¨": 3788,
      "æĦıå¤ĸ": 3789,
      "æĢİæł·": 3790,
      "ä¹±éŃĶæµ·": 3791,
      "åĹ¤åĹ¤": 3792,
      ".âĢĿ": 3793,
      "äºı": 3794,
      "èĢĮè¿Ļ": 3795,
      "å¹ħ": 3796,
      "å¦Ĥåħ¶": 3797,
      "äºĨä¸Ģç§į": 3798,
      "æĶ¾å¼ĥ": 3799,
      "çļĦæ°Ķæ°Ľ": 3800,
      "å¾®ç¬ĳ": 3801,
      "åİĭæĬĳ": 3802,
      "åĲ¸åĬĽ": 3803,
      "ç»Ĩå¾®çļĦ": 3804,
      "åĵ¥åĵ¥": 3805,
      "åĲĦç§į": 3806,
      "åĲ¼å£°": 3807,
      "æľĭåıĭ": 3808,
      "å¤©æĹ¶éĹ´": 3809,
      "çī§": 3810,
      "ä¸¤èĢħ": 3811,
      "æīįæĺ¯": 3812,
      "æĳĺ": 3813,
      "æŃ»çİĦå¢ĥ": 3814,
      "çļĦå¼ŁåŃĲ": 3815,
      "èĥ½åĲ¦": 3816,
      "éĻĨ": 3817,
      "çĶŁçİĦå¢ĥ": 3818,
      "å¥½äºĨ": 3819,
      "è´´": 3820,
      "åĽĽåĳ¨": 3821,
      "ä¸Ģå¯¹": 3822,
      "åĪ°å¾Ĺ": 3823,
      "æīĢèķ´åĲ«": 3824,
      "çģ«çĥŃ": 3825,
      "ç¢į": 3826,
      "æĹ¢çĦ¶å¦ĤæŃ¤": 3827,
      "æķĪæŀľ": 3828,
      "ä¹ĥæĺ¯": 3829,
      "åı¯åį´": 3830,
      "ä½Ĩè¿Ļ": 3831,
      "ä¿ĥ": 3832,
      "çī¹å°Ķ": 3833,
      "çĪĨåıĳåĩº": 3834,
      "æ³ķçĬ¸": 3835,
      "ä½ĵåĨħæĸĹæ°Ķ": 3836,
      "å¯ĴèĬĴ": 3837,
      "æĭ±æīĭ": 3838,
      "å½¼": 3839,
      "çĽ®çŀª": 3840,
      "æ´ĭ": 3841,
      "é©±": 3842,
      "æĨ": 3843,
      "ä»¥ä»ĸ": 3844,
      "æĻ¯": 3845,
      "è¿ĻäºĽå®¶ä¼Ļ": 3846,
      "åı¯æĥľ": 3847,
      "è¿ĺå¥½": 3848,
      "ä¸Ģéģĵèº«å½±": 3849,
      "èĭ¥æĺ¯èĥ½å¤Ł": 3850,
      "éĺ´æ£®": 3851,
      "æ·±æ·±": 3852,
      "éª¨èĢģäºº": 3853,
      "çļ±äºĨ": 3854,
      "ä¸Ģä¸Ŀä¸Ŀ": 3855,
      "åĤ¬åĬ¨": 3856,
      "ä»ĸæĺ¯": 3857,
      "éĥ½ä¸į": 3858,
      "æĹłå°½": 3859,
      "æģ©": 3860,
      "è¡¨çİ°": 3861,
      "çļĦæ¶Īæģ¯": 3862,
      "è½¬è½®å¢ĥ": 3863,
      "åĽŀè¿ĩç¥ŀæĿ¥": 3864,
      "èŃ": 3865,
      "ä»ĸæīĢ": 3866,
      "ç§ģ": 3867,
      "çģµä¸¹": 3868,
      "åı£åĳĨ": 3869,
      "æĸĹçļĩå¼ºèĢħ": 3870,
      "èĮĥåĽ´": 3871,
      "èŃ¦": 3872,
      "äºĴ": 3873,
      "ä¸ĢåĪĩ": 3874,
      "å¾Ħ": 3875,
      "èĲ§çĤİåį´æĺ¯": 3876,
      "èĥĢ": 3877,
      "....": 3878,
      "å¿«èĭ¥": 3879,
      "é¼»": 3880,
      "ĻçĿĢ": 3881,
      "å¼ºçļĦ": 3882,
      "è·¨": 3883,
      "åĴ½": 3884,
      "è¡£è¡«": 3885,
      "æį®è¯´": 3886,
      "é¢ľèī²": 3887,
      "åĲĹ": 3888,
      "åĪ°æīĭ": 3889,
      "å°ıè²ī": 3890,
      "éĶĭåĪ©": 3891,
      "å¨ĩèº¯": 3892,
      "å¯¼èĩ´": 3893,
      "âĢĺ": 3894,
      "å¤§æīĭ": 3895,
      "åīĬ": 3896,
      "è¢«èĲ§çĤİ": 3897,
      "çŃīå¾ħ": 3898,
      "æĹłå¥ĪçļĦæĳĩäºĨæĳĩå¤´": 3899,
      "åľ¨ä»ĸä»¬": 3900,
      "æŀĹåĬ¨åį´æĺ¯": 3901,
      "å£°åĬ¿": 3902,
      "éĿ¢ä¸Ĭ": 3903,
      "æĥĬå¼Ĥ": 3904,
      "æĺ¾çĦ¶ä¹Łæĺ¯": 3905,
      "éĶģéĵ¾": 3906,
      "åĳľ": 3907,
      "è´ª": 3908,
      "åĲŀå¤©": 3909,
      "æĺŁèĢģé¬¼": 3910,
      "æ¡Į": 3911,
      "åı¥è¯Ŀ": 3912,
      "çļĦä½įç½®": 3913,
      "å®ģ": 3914,
      "æŀĹä¿®": 3915,
      "è®¨": 3916,
      "ä¿Ĭ": 3917,
      "è´§": 3918,
      "å¤ĸéĿ¢": 3919,
      "å½»åºķåºķ": 3920,
      "å±ŀæĢ§": 3921,
      "çĽ®çŀªåı£åĳĨ": 3922,
      "ç¬¬åĽĽ": 3923,
      "çªģå¦Ĥåħ¶": 3924,
      "æĶ¶åĽŀ": 3925,
      "èĦĳæµ·": 3926,
      "ĠåºĶæ¬¢æ¬¢": 3927,
      "éĢĿ": 3928,
      "æ¶§": 3929,
      "ä»İä¸Ń": 3930,
      "å·¨çŁ³": 3931,
      "å½»å½»åºķåºķ": 3932,
      "çļĦèĦ¸åºŀä¸Ĭ": 3933,
      "ä»ĩ": 3934,
      "å¤ļè°¢": 3935,
      "æĢķæĺ¯": 3936,
      "çĬ¹è±«": 3937,
      "å¯¼å¸Ī": 3938,
      "çļĦæ¸©åº¦": 3939,
      "æī°": 3940,
      "å¤§å°ı": 3941,
      "éĥ½æĺ¯èĥ½å¤Ł": 3942,
      "æĪĸèĢħ": 3943,
      "çļĦæĻ": 3944,
      "éĹªçĶµèĪ¬": 3945,
      "ä»£ä»·": 3946,
      "ä¸°": 3947,
      "åħ¶å®ŀ": 3948,
      "è¯Ŀè¯Ń": 3949,
      "å®ļçĦ¶": 3950,
      "æŀĹä¿®å´ĸ": 3951,
      "èĢĮç«ĭ": 3952,
      "èĪĶ": 3953,
      "ä¸īéģĵ": 3954,
      "ç´¢": 3955,
      "éķ¿æŀª": 3956,
      "åģĩ": 3957,
      "åĳ¨éģŃ": 3958,
      "æİ©é¥°": 3959,
      "ä¸įå¤ļ": 3960,
      "ä¹Łå¹¶ä¸į": 3961,
      "çĽĪ": 3962,
      "èµ¢": 3963,
      "çĲ¥": 3964,
      "åĩĿèģļæĪĲ": 3965,
      "åĵģä¸¹èį¯": 3966,
      "åļĵ": 3967,
      "èº«åīį": 3968,
      "æİĮæİ§": 3969,
      "æľ¬å°±": 3970,
      "æĽ´ä¸º": 3971,
      "åĶ¤": 3972,
      "æĴĳ": 3973,
      "åį¡": 3974,
      "èĢĮä¸Ĭ": 3975,
      "çľŁè¦ģ": 3976,
      "è§īå¾Ĺ": 3977,
      "æĢ»æĺ¯": 3978,
      "å±±é¡¶": 3979,
      "éĿĴé¾Ļ": 3980,
      "è¶ĬåĬł": 3981,
      "æĻ®éĢļ": 3982,
      "Ġä»ĸ": 3983,
      "ä¸ĢèĲ½": 3984,
      "è¿Ļæ®µæĹ¶éĹ´": 3985,
      "çĤİçģ«": 3986,
      "èĲ§æĪĺ": 3987,
      "è½¬ç§»": 3988,
      "æ¸ħèĦĨ": 3989,
      "Ġåľ¨è¿Ļ": 3990,
      "æľīçĿĢä¸Ģéģĵ": 3991,
      "åĨ°æ²³": 3992,
      "æ½ľ": 3993,
      "åĢŁåĬ©çĿĢ": 3994,
      "åĲ±": 3995,
      "åİĦ": 3996,
      "ä½ľä¸º": 3997,
      "ç»Ļä½ł": 3998,
      "Ġå¤©ç©ºä¸Ĭ": 3999,
      "æ²¡äºĭ": 4000,
      "ä¸İä»ĸ": 4001,
      "æłĩ": 4002,
      "çģµåĤĢ": 4003,
      "å¾ħç»Ń": 4004,
      "ç±³çī¹å°Ķ": 4005,
      "çľģ": 4006,
      "æĸľ": 4007,
      "ä¸ĭçļĦ": 4008,
      "å¥¹ä»¬": 4009,
      "èĨ¨": 4010,
      "ä¸īåįĥçĦ±": 4011,
      "çģĮæ³¨": 4012,
      "æĸĳ": 4013,
      "æľªå®Į": 4014,
      "ä¸Ģä¸ªäºº": 4015,
      "å¯¹è§ĨäºĨä¸Ģçľ¼": 4016,
      "è¿ĩäºĨ": 4017,
      "æ°¸": 4018,
      "åį´å¹¶æ²¡æľī": 4019,
      "æ¸¡": 4020,
      "ç¬¬ä¸ĥ": 4021,
      "å¡ŀ": 4022,
      "æĸĻåĪ°": 4023,
      "èĢĮè¨Ģ": 4024,
      "çİ°èº«": 4025,
      "æŃ¥ä¼Ĳ": 4026,
      "èłķåĬ¨": 4027,
      "èĩªåħ¶": 4028,
      "ç½ķ": 4029,
      "çº¢èī²": 4030,
      "æ£±": 4031,
      "æĬ±çĿĢ": 4032,
      "«å¤´": 4033,
      "çļĦèį¯": 4034,
      "çļĦä¸»": 4035,
      "æŀĹçĦ±": 4036,
      "åºĦ": 4037,
      "éĢĤ": 4038,
      "æľĢå¥½": 4039,
      "èİ½": 4040,
      "æħĮ": 4041,
      "ç»ĵæĿŁ": 4042,
      "åĴ§åĺ´": 4043,
      "çļĦèĦ¸èī²": 4044,
      "ä¼ļæľī": 4045,
      "éķ¿åīĳ": 4046,
      "ä»ĸçļĦèº«ä½ĵ": 4047,
      "è¶³å¤Ł": 4048,
      "å®Ŀè´Ŀ": 4049,
      "ç¤¼": 4050,
      "è¿ĻèĤ¡": 4051,
      "è¿Ļå°ıåŃĲ": 4052,
      "è¯ī": 4053,
      "éĥ½æĺ¯åľ¨æŃ¤åĪ»": 4054,
      "åıĮæİĮ": 4055,
      "è½°åĩº": 4056,
      "çļĦæİĮ": 4057,
      "èĨ¨èĥĢ": 4058,
      "éģĵéģĵ": 4059,
      "æ²¿": 4060,
      "æľīçĿĢä¸Ģ": 4061,
      "åħĥæ¶ħçĽĺå¢ĥ": 4062,
      "å¤ªå¤§": 4063,
      "æīĭæİĮä¸Ģæı¡": 4064,
      "æ¢Ń": 4065,
      "åĶ¯ä¸Ģ": 4066,
      "çļĦåº¦": 4067,
      "åį´å¹¶æľª": 4068,
      "çĥŁ": 4069,
      "åĽŀèį¡": 4070,
      "éĴ¥": 4071,
      "åĭī": 4072,
      "åī§çĥĪçļĦ": 4073,
      "æŀģèĩ´": 4074,
      "å¤ªå¤§çļĦ": 4075,
      "åħ«åįģ": 4076,
      "é¬¼éŃħ": 4077,
      "äº²èĩª": 4078,
      "ä¸Ģè¡Įäºº": 4079,
      "æĹłå£°": 4080,
      "ç¥ŀèī²": 4081,
      "çľīå¤´å¾®çļ±": 4082,
      "å¼§åº¦": 4083,
      "æĳĺæĺŁèĢģé¬¼": 4084,
      "çļĦé»ĳèī²": 4085,
      "è¢«ä»ĸ": 4086,
      "åĢĴä¹Łæĺ¯": 4087,
      "èĬĤ": 4088,
      "çĻ½èī²": 4089,
      "å§¿": 4090,
      "æľªå®Įå¾ħç»Ń": 4091,
      "ä¸Ĭåīį": 4092,
      "ç»·": 4093,
      "æĦ¤": 4094,
      "æĸĹå¸Ŀ": 4095,
      "æĹıäºº": 4096,
      "çļĦæİł": 4097,
      "åı«å£°": 4098,
      "ä¸įå¾Ĺä¸į": 4099,
      "çİ°åľ¨çļĦä»ĸ": 4100,
      "å¤§èįĴèĬľ": 4101,
      "åį³ä½¿æĺ¯": 4102,
      "çļĦåĲį": 4103,
      "èĲ§çĤİåĵ¥åĵ¥": 4104,
      "ä¸İèĲ§çĤİ": 4105,
      "å¯¹çĿĢæŀĹåĬ¨": 4106,
      "éĶ¤": 4107,
      "å¸Ńåį·èĢĮåĩº": 4108,
      "éĻ·åħ¥": 4109,
      "ä¸īåįĥçĦ±çĤİçģ«": 4110,
      "å¾Ĺç½ª": 4111,
      "å°ıæĪĲ": 4112,
      "å±±è°·": 4113,
      "éĿĴéĽ": 4114,
      "æĸĹæ°Ķå¤§": 4115,
      "åħŃåįģ": 4116,
      "æĺŁæĸĹåľ£": 4117,
      "åī©": 4118,
      "åĸĬ": 4119,
      "éĩĮéĿ¢": 4120,
      "è½¬å¤´": 4121,
      "åı¹äºĨä¸Ģåı£æ°Ķ": 4122,
      "çļĦæĦŁè§īåĪ°": 4123,
      "åħĥä¸¹å¢ĥ": 4124,
      "å¤§éĺµ": 4125,
      "ä¾¿æĺ¯è§ģåĪ°": 4126,
      "è¯´éģĵ": 4127,
      "åħĥç¥ŀ": 4128,
      "çĪ¹": 4129,
      "ä½İå¤´": 4130,
      "ä¹Łä¸įæķ¢": 4131,
      "ä¸Ģåı£é²ľè¡Ģ": 4132,
      "åºŁè¯Ŀ": 4133,
      "ä¸Ģæł·": 4134,
      "äºĨä¸ĭåİ»": 4135,
      "æŃī": 4136,
      "çļĦç¢": 4137,
      "åı¤å®¶": 4138,
      "åĩ»æĿĢ": 4139,
      "æĶ¶æĭ": 4140,
      "įæİ§": 4141,
      "çļĦçĶ·åŃĲ": 4142,
      "ä¸ĢçĻ¾": 4143,
      "æĿ¥èĩª": 4144,
      "å°Ĩä»ĸ": 4145,
      "è¶³æľī": 4146,
      "é¦Ĩ": 4147,
      "éļľ": 4148,
      "æµħ": 4149,
      "ä¸¤ç§į": 4150,
      "èĬĿ": 4151,
      "æĮĩå°ĸ": 4152,
      "åĪļåĪļèĲ½ä¸ĭ": 4153,
      "æĿĤçĿĢ": 4154,
      "åħīçº¿": 4155,
      "æĭĶ": 4156,
      "è°¨": 4157,
      "æķ°åįģ": 4158,
      "ä¹Łä¸įçŁ¥éģĵ": 4159,
      "è¿ŁçĸĳäºĨä¸Ģä¸ĭ": 4160,
      "éĻĮçĶŁ": 4161,
      "æ¸ħæĻ°": 4162,
      "å°±å¾Ĺ": 4163,
      "éªļ": 4164,
      "ç»Īæĺ¯": 4165,
      "ï¼ĮâĢľ": 4166,
      "ä¹°": 4167,
      "é¢Ħ": 4168,
      "æŁ¥": 4169,
      "åıĮçľ¸": 4170,
      "åĨ²è¿Ľ": 4171,
      "é£ŀè¡Į": 4172,
      "èħ¾åĪ¹": 4173,
      "éĹªè¿ĩä¸ĢæĬ¹": 4174,
      "çļĦæł": 4175,
      "èº«åŃĲ": 4176,
      "çļĦçĸ": 4177,
      "è¢«æŀĹåĬ¨": 4178,
      "éĴ±": 4179,
      "åĩĦåİī": 4180,
      "éĤ£å¯¹": 4181,
      "å¦¹": 4182,
      "ç«Ń": 4183,
      "åı¯è§ģ": 4184,
      "èĩªåħ¶ä½ĵåĨħ": 4185,
      "æŃ»çļĦ": 4186,
      "è£ħ": 4187,
      "ä¿ĿæĬ¤": 4188,
      "åıªè§ģå¾ĹéĤ£": 4189,
      "éľ¸éģĵ": 4190,
      "ĠèĻ½çĦ¶": 4191,
      "ä¸Ģç«ł": 4192,
      "åĲİæĿ¥": 4193,
      "ä¹Łæĺ¯ç¼ĵç¼ĵ": 4194,
      "èĥģ": 4195,
      "èµ¶å¿Ļ": 4196,
      "ä»°å¤©": 4197,
      "åĲŀå¤©èŁĴ": 4198,
      "éľį": 4199,
      "èĤĨ": 4200,
      "æķ°éĩı": 4201,
      "æŃ£éĿ¢": 4202,
      "ç¬ĳçĿĢæĳĩäºĨæĳĩå¤´": 4203,
      "è¯ķè¯ķ": 4204,
      "ä¹ĭéĹ´çļĦ": 4205,
      "çļĦæ¶Īå¤±": 4206,
      "æĬµè¾¾": 4207,
      "ä½İæ²īçļĦ": 4208,
      "å¤©å¦ĸåĩ°": 4209,
      "çļĦèĢģèĢħ": 4210,
      "äºĨèĲ§çĤİ": 4211,
      "å¥ī": 4212,
      "æ°Ķæ°Ľ": 4213,
      "æīįèĥ½": 4214,
      "æĮ¥äºĨ": 4215,
      "ä¸ĢéģĵéģĵçĽ®åħī": 4216,
      "åħŃç«ł": 4217,
      "æŃ»æŃ»çļĦçĽ¯çĿĢ": 4218,
      "åĴĶåļĵ": 4219,
      "çļĦæĸ¹åĲĳ": 4220,
      "å¯¸": 4221,
      "åĩłåĪĨ": 4222,
      "æľ¬æĿ¥": 4223,
      "çĭĤåĸľ": 4224,
      "åĳ¨éĢļ": 4225,
      "åĵªéĩĮ": 4226,
      "æ¸Ĭå±±": 4227,
      "éĿĴéĽī": 4228,
      "çģ¼": 4229,
      "å°ıå§Ĳ": 4230,
      "å¤ļä¹ħ": 4231,
      "çļĦçŃ": 4232,
      "ä»Ģä¹Īä¸ľè¥¿": 4233,
      "ç½¡": 4234,
      "æĭįäºĨæĭį": 4235,
      "äºĴçĽ¸": 4236,
      "æ§": 4237,
      "ä¸«å¤´": 4238,
      "ä¹Łä¸įæĺ¯": 4239,
      "åĳĬè¯ī": 4240,
      "çļĦæ£®": 4241,
      "²ç¾İ": 4242,
      "çļĦåı¯æĢķ": 4243,
      "å¤©åħĥ": 4244,
      "åı¤å«£": 4245,
      "ç¬¬åħ«": 4246,
      "æľªèĥ½": 4247,
      "è®©å¾ĹæŀĹåĬ¨": 4248,
      "æĶ¶æķĽ": 4249,
      "è¸ª": 4250,
      "åĩĳ": 4251,
      "åħīç½©": 4252,
      "èĩªéĤ£": 4253,
      "æ²¡æľīåįĬçĤ¹": 4254,
      "çĲ³": 4255,
      "å¨ģèĥģ": 4256,
      "åħħæ»¡": 4257,
      "éģ¥è¿ľ": 4258,
      "åª²ç¾İ": 4259,
      "ä¸Ģåľº": 4260,
      "åĪĳ": 4261,
      "æŀŃ": 4262,
      "å¤§ç¬ĳ": 4263,
      "ç¥Ŀ": 4264,
      "çļĦçĬ": 4265,
      "æĻĥ": 4266,
      "åĨ·æ¼ł": 4267,
      "ç´§çļ±": 4268,
      "çŁ³ç¢ĳ": 4269,
      "ä¹Ŀåįģ": 4270,
      "æĺı": 4271,
      "ä¸įèµ·": 4272,
      "èĲ¥": 4273,
      "ä¹Łå°±æĺ¯": 4274,
      "æľĢåĲİçļĦ": 4275,
      "çļĦæĭį": 4276,
      "å¿ĥç¥ŀä¸ĢåĬ¨": 4277,
      "ç«ŀ": 4278,
      "ä¸ĥç«ł": 4279,
      "åľ¨åľº": 4280,
      "å°ıèĦ¸": 4281,
      "çģ«çº¢": 4282,
      "åĽĽå¤Ħ": 4283,
      "è¿ľåı¤ç§ĺ": 4284,
      "åı¶å®¶": 4285,
      "ä¸Ģåı£æ°Ķ": 4286,
      "è¯¸ä½į": 4287,
      "çļĦç¬ĳå®¹": 4288,
      "çļĦå°ĳå¹´": 4289,
      "ä¼ı": 4290,
      "æ·¬": 4291,
      "ä¸īç«ł": 4292,
      "éķľ": 4293,
      "èĬĬ": 4294,
      "åĽĽå¤§": 4295,
      "åĳ¼åķ¸èĢĮåĩº": 4296,
      "å¾½": 4297,
      "åĨł": 4298,
      "åħīæĿŁ": 4299,
      "è½°éļĨéļĨ": 4300,
      "çĭłçĭłçļĦè½°": 4301,
      "è¢ĸè¢įä¸ĢæĮ¥": 4302,
      "====": 4303,
      "é»¯æ·¡": 4304,
      "çļĦä¸į": 4305,
      "èĲ½èĢĮä¸ĭ": 4306,
      "æµ·åŁŁ": 4307,
      "äºĶç«ł": 4308,
      "Ġçŀ§å¾Ĺ": 4309,
      "çļĦä»İ": 4310,
      "ä¸Ģèµ·": 4311,
      "èµŀ": 4312,
      "è¯´æĿ¥": 4313,
      "åĽŀå¤į": 4314,
      "å¾Īéļ¾": 4315,
      "ä¸Ģçķª": 4316,
      "éŃĶå²©": 4317,
      "è½¬è¿ĩå¤´": 4318,
      "äºĮç«ł": 4319,
      "çĿ¡": 4320,
      "åĩ¶çĭł": 4321,
      "é¹«": 4322,
      "æĶ¶æĭ¾": 4323,
      "Ġè¿ĻèĪ¬": 4324,
      "çļĦéĿ¢": 4325,
      "ä¸įæĥ³": 4326,
      "çľĭåİ»": 4327,
      "éĽ·æ¸Ĭå±±": 4328,
      "èµ°äºĨ": 4329,
      "ĠåĺŃ": 4330,
      "ä»ĸåľ¨": 4331,
      "å±ĳ": 4332,
      "æīĢéľĢè¦ģ": 4333,
      "éĥ½æĺ¯æľīçĿĢ": 4334,
      "çİĦåŃĲ": 4335,
      "æ´ŀç©¿": 4336,
      "èĩªçĦ¶ä¹Łæĺ¯": 4337,
      "ä»·æł¼": 4338,
      "ä»ĺåĩº": 4339,
      "åĻĹåĹ¤": 4340,
      "ĺæīĭ": 4341,
      "çĦ¦": 4342,
      "å¯¹éĿ¢": 4343,
      "åºĶçİĦåŃĲ": 4344,
      "æ²Ļæ¼ł": 4345,
      "ç£ĲéĹ¨": 4346,
      "ä¸ĢæĿ¥": 4347,
      "çĪ¬": 4348,
      "æ±ī": 4349,
      "è¸ıåĩº": 4350,
      "éĥ¨åĪĨ": 4351,
      "éľİéĤ£éĹ´": 4352,
      "èĲ§çĤİä¸İ": 4353,
      "ä¾§": 4354,
      "éĽķ": 4355,
      "è¿ĺæ²¡": 4356,
      "æłª": 4357,
      "çĤ¼ä¸¹": 4358,
      "åĢĴé£ŀ": 4359,
      "å·²ç»ıæĺ¯": 4360,
      "è±Ĩ": 4361,
      "çļĦæıĲ": 4362,
      "é£İéĽ·éĺģ": 4363,
      "ä¸Ģåįģ": 4364,
      "ä¹Łæĺ¯è¶ĬæĿ¥è¶Ĭ": 4365,
      "ç¥Ń": 4366,
      "åį´æĺ¯æľīçĿĢ": 4367,
      "æĻ´": 4368,
      "ç¬¬åħŃ": 4369,
      "è£Ļ": 4370,
      "å¦ĸåĤĢ": 4371,
      "æīĭæİĮä¸Ģ": 4372,
      "éĿĻéĿĻ": 4373,
      "çļĦé«ĺ": 4374,
      "äººçī©": 4375,
      "çĭĤé£İ": 4376,
      "è®©å¾Ĺäºº": 4377,
      "æħĳ": 4378,
      "å®ĮæĪĲ": 4379,
      "åħ«ç«ł": 4380,
      "éª¨éª¼": 4381,
      "ä¸Ģå¼¹": 4382,
      "åĬ¨èº«": 4383,
      "å¾Ĺä¸Ĭ": 4384,
      "æ²¹": 4385,
      "å±Ĭ": 4386,
      "åħ¨èº«": 4387,
      "æĶ¶åħ¥": 4388,
      "èĻļå¹»": 4389,
      "æº¢": 4390,
      "æ··ä¹±": 4391,
      "åıĤåĬł": 4392,
      "åĥµç¡¬": 4393,
      "è·º": 4394,
      "åĽĽç«ł": 4395,
      "è®©å¾Ĺä»ĸä»¬": 4396,
      "å°Ħåĩº": 4397,
      "å¹³æĹ¥": 4398,
      "æĲº": 4399,
      "é²¨": 4400,
      "è½»è½»çļĦ": 4401,
      "åİĦéļ¾": 4402,
      "ä¹ł": 4403,
      "èĦı": 4404,
      "å°ıè¯´": 4405,
      "æģį": 4406,
      "æĥĬåĸľ": 4407,
      "äºĳæ£±": 4408,
      "âĢĻâĢĻ": 4409,
      "æľ¯": 4410,
      "äºĨçĤ¹": 4411,
      "æĿ¿": 4412,
      "å¤©å¢ĵ": 4413,
      "éĻĪ": 4414,
      "âĢ¦âĢ¦âĢ¦âĢ¦": 4415,
      "è½¬è¿ĩ": 4416,
      "åĲ¬è§ģ": 4417,
      "ç¬ĳçĿĢéģĵ": 4418,
      "åı«åģļ": 4419,
      "çļĦæĢ§": 4420,
      "æ¿ĢåĬ¨": 4421,
      "çļĦæĪĺæĸĹ": 4422,
      "ä¸įåĬ¨": 4423,
      "çļĦæ¼": 4424,
      "ä¹Łæĺ¯ä»¤å¾Ĺ": 4425,
      "è¡¥": 4426,
      "å°±çĬ¹å¦Ĥ": 4427,
      "çļĦçĥ": 4428,
      "æİ¥è¿ĳ": 4429,
      "éŁ³æ³¢": 4430,
      "è§ģåĪ°æŀĹåĬ¨": 4431,
      "èĥ¸åı£": 4432,
      "åĩıå¼±": 4433,
      "ä¹Ŀç«ł": 4434,
      "Ġåľ¨æŀĹåĬ¨": 4435,
      "ä¸ĥåįģ": 4436,
      "åºĶè¯¥ä¾¿æĺ¯": 4437,
      "æĸ©æĿĢ": 4438,
      "âĺ": 4439,
      "æĹ¶åĪ»": 4440,
      "å°±å¦ĤåĲĮ": 4441,
      "ä¸īåĲį": 4442,
      "ç¥ŀæ®¿": 4443,
      "éĹªåĬ¨": 4444,
      "åĨ·åĵ¼": 4445,
      "æ´ªèįĴ": 4446,
      "æķ£åıĳåĩºæĿ¥": 4447,
      "æĤ¬æµ®åľ¨": 4448,
      "çº¤ç»Ĩ": 4449,
      "ªåĬĽ": 4450,
      "çļĦéĿ¢èī²": 4451,
      "çļĦä¸¾åĬ¨": 4452,
      "ä¸įè®º": 4453,
      "ç§¦": 4454,
      "åĢ©": 4455,
      "åı¤é¾Ļ": 4456,
      "æĹłæ¯ĶçļĦ": 4457,
      "åĬ¡": 4458,
      "ä¸Ĭæ¬¡": 4459,
      "ä¸įè¿ĩè¿Ļ": 4460,
      "ç¦»åİ»": 4461,
      "åłĤ": 4462,
      "ä¸¤éģĵèº«å½±": 4463,
      "ç´§ç´§çļĦçĽ¯çĿĢ": 4464,
      "é»ĳè¢įäºº": 4465,
      "ä¸§": 4466,
      "çºł": 4467,
      "çŁ©": 4468,
      "æŀģåº¦": 4469,
      "çĻ½å±±": 4470,
      "æģĲæĥ§": 4471,
      "åĨ°åĩī": 4472,
      "å±ķçİ°": 4473,
      "éĹŃåħ³": 4474,
      "å©ª": 4475,
      "çļĦæĴŀ": 4476,
      "ç°": 4477,
      "åľ°å¿ĥçģ«": 4478,
      "åįĬåľ£": 4479,
      "éĽ¾æ°Ķ": 4480,
      "èı²": 4481,
      "çº³æĪĴä¸Ń": 4482,
      "æľīçĿĢä¸įå°ĳ": 4483,
      "èĥ½å¤Łå°Ĩ": 4484,
      "çľīå¿ĥ": 4485,
      "ç½®ä¿¡": 4486,
      "å¿ħçĦ¶ä¼ļ": 4487,
      "èĴĻ": 4488,
      "ç»Łé¢Ĩ": 4489,
      "âĻ": 4490,
      "ä¸ĢæĹı": 4491,
      "èĢĮåĩºçļĦ": 4492,
      "å½¼æŃ¤": 4493,
      "è´ªå©ª": 4494,
      "éĤ£ä¾¿æĺ¯": 4495,
      "éĤ£è¢«": 4496,
      "éĿĴèī²çģ«çĦ°": 4497,
      "çĪ±": 4498,
      "èĲ§çĤİå¿ĥå¤´": 4499,
      "åħ¶ä¸Ĭ": 4500,
      "ä»İæľª": 4501,
      "åĴĤ": 4502,
      "è¿Ļä¸ªæĹ¶åĢĻ": 4503,
      "ä¿¡å¿ĥ": 4504,
      "æĿĲæĸĻ": 4505,
      "ç¿»èħ¾": 4506,
      "çļĦæķĪ": 4507,
      "ä¸ĢæİĮ": 4508,
      "éĶģå®ļ": 4509,
      "åĢ©å½±": 4510,
      "å¤Ń": 4511,
      "åĬªåĬĽ": 4512,
      "çĤİçĽŁ": 4513,
      "éŃĦ": 4514,
      "åĿ¦": 4515,
      "æļ´éĢĢ": 4516,
      "æĭįåįĸåľº": 4517,
      "ç¼łç»ķ": 4518,
      "è°¨æħİ": 4519,
      "åİĦéļ¾æ¯Ĵ": 4520,
      "æ¾": 4521,
      "ä¹¦": 4522,
      "è¿Ļåº§": 4523,
      "ä¾¿æĺ¯åĩºçİ°åľ¨äºĨ": 4524,
      "äºĨä¸ĢæĬ¹": 4525,
      "å°±èĥ½": 4526,
      "ä¼łå¼Ģ": 4527,
      "ä½İçº§": 4528,
      "æĲĲ": 4529,
      "åľ¨æĪĳ": 4530,
      "å¤©æ®¿": 4531,
      "å®ŀè´¨": 4532,
      "æ²¡æľīäºĨ": 4533,
      "ä¸ĢäºĽäºº": 4534,
      "éĵľ": 4535,
      "çİĦéĩįå°º": 4536,
      "æĽ¹é¢ĸ": 4537,
      "âĺĨ": 4538,
      "æĿĸ": 4539,
      "å¼ºèĢħçļĦ": 4540,
      "åĲ¬è¯´è¿ĩ": 4541,
      "åĽłä¸ºä»ĸ": 4542,
      "å¤§æĸĹå¸Ī": 4543,
      "åı¤æłĳ": 4544,
      "æ»ĳ": 4545,
      "è±¹": 4546,
      "æĥĬäººçļĦéĢŁåº¦": 4547,
      "ä¸ĢåľĪ": 4548,
      "ä¸ĢæŁĦ": 4549,
      "çļĦæ®": 4550,
      "äºĽè®¸": 4551,
      "ç¬ĳæĦı": 4552,
      "å½±åŃĲ": 4553,
      "çĮľ": 4554,
      "éĥ¡": 4555,
      "æħ°": 4556,
      "è¿ĻéĩĮçļĦ": 4557,
      "èĭ¦ç¬ĳéģĵ": 4558,
      "èĤ¯å®ļ": 4559,
      "ç½¢äºĨ": 4560,
      "âĻĢ": 4561,
      "è¤": 4562,
      "ä¸Ģå¹´": 4563,
      "ä»Ķ": 4564,
      "äºĨåİ»": 4565,
      "äºĨè§£": 4566,
      "æķŀ": 4567,
      "ä½łèĥ½": 4568,
      "ç¥¸": 4569,
      "è¯´çĿĢ": 4570,
      "èİ«åĲį": 4571,
      "è¿Ļçīĩå¤©åľ°": 4572,
      "åı¶éĩį": 4573,
      "çļĦæĦıæĢĿ": 4574,
      "å¾ĦçĽ´": 4575,
      "æĦ¤æĢĴ": 4576,
      "æĮ¥äºĨæĮ¥æīĭ": 4577,
      "æŀ¶": 4578,
      "çĭĹ": 4579,
      "è¿ĺä¼ļ": 4580,
      "æĮ£æīİ": 4581,
      "åı¤å¸Ŀ": 4582,
      "åĪļå¥½": 4583,
      "åıįåºĶ": 4584,
      "åĩŃç©º": 4585,
      "çļĦæ·¡": 4586,
      "åĲ¹": 4587,
      "èĢĮåľ¨éĤ£": 4588,
      "çļĦéĤ£ä¸Ģéľİ": 4589,
      "æıĲéĨĴ": 4590,
      "æ®ĭå½±": 4591,
      "èµ«çĦ¶": 4592,
      "å®ĪæĬ¤": 4593,
      "èº«æĿ¥": 4594,
      "çīµ": 4595,
      "ä¸¤å¹´": 4596,
      "åĨ·æ±Ĺ": 4597,
      "å¤ªæ¸ħ": 4598,
      "æķ£åİ»": 4599,
      "åłĨ": 4600,
      "å¸Ńåį·èĢĮå¼Ģ": 4601,
      "æ³Ľèµ·": 4602,
      "æĺŁæĸĹå°Ĭ": 4603,
      "å°¸ä½ĵ": 4604,
      "æ¹ĥ": 4605,
      "åĨłåĨĽ": 4606,
      "Ġå°ıè²Ĥ": 4607,
      "æľīå¤ļ": 4608,
      "æĥ³èµ·": 4609,
      "è¢«äºº": 4610,
      "åĺĢ": 4611,
      "é¡¿æĹ¶éĹ´": 4612,
      "æľĢåĲİä¸Ģ": 4613,
      "äºīå¤º": 4614,
      "çļĦå±Ĥæ¬¡": 4615,
      "äº§": 4616,
      "æıī": 4617,
      "æŃ£å¥½": 4618,
      "çĽ¸æĴŀ": 4619,
      "ç´§ç»·": 4620,
      "æĽ´æĸ°": 4621,
      "è¿Ļä¸ĢæŃ¥": 4622,
      "å¤±æľĽ": 4623,
      "ç¾İçĽ®": 4624,
      "å·´æİĮ": 4625,
      "¾İæ¹ĥ": 4626,
      "è§ĦçŁ©": 4627,
      "çĹķè¿¹": 4628,
      "åĭīå¼º": 4629,
      "éŃĶå²©çİĭæľĿ": 4630,
      "äºĨæŀĹåĬ¨": 4631,
      "éĤ£çīĩ": 4632,
      "ä¸ĭåľº": 4633,
      "ä¸¤äººçļĦ": 4634,
      "åĪļæīį": 4635,
      "æ½®æ°´": 4636,
      "åı¬åĶ¤": 4637,
      "Ġè§ģçĬ¶": 4638,
      "è¿Ļåľº": 4639,
      "åºĬ": 4640,
      "æĪĳæĿ¥": 4641,
      "åĸ§": 4642,
      "åĺ´å·´": 4643,
      "éŃĤæ®¿æ®¿ä¸»": 4644,
      "æĢĢä¸Ń": 4645,
      "éģ®æİ©": 4646,
      "çļĦæĸ¹": 4647,
      "è¿Ļè¾¹": 4648,
      "ä¸Ĭä¸Ģ": 4649,
      "çģ¯": 4650,
      "æĬļ": 4651,
      "æľĽåİ»": 4652,
      "æįı": 4653,
      "åĨ³å®ļ": 4654,
      "å¾®å¾®ä¸Ģåıĺ": 4655,
      "åĶĲéľĩ": 4656,
      "æºĲæºĲä¸įæĸŃçļĦ": 4657,
      "æĺ¯åĲ¦": 4658,
      "ä¸įå¥½": 4659,
      "çĤī": 4660,
      "éĥ½å°Ĩä¼ļ": 4661,
      "çĽ®çļĦ": 4662,
      "é¡·": 4663,
      "èį¯æĹı": 4664,
      "æĹĭåį³åħ¶": 4665,
      "çªģçĦ¶æľīçĿĢ": 4666,
      "çĻ¾æľĿ": 4667,
      "ä»»çĶ±": 4668,
      "è¿Ļä¹Īå¤ļ": 4669,
      "æĦŁåºĶåĪ°": 4670,
      "å¤©éŃĶ": 4671,
      "æ²¾": 4672,
      "ä½Ĩä¹Ł": 4673,
      "çĥ¬": 4674,
      "æĤł": 4675,
      "è¿Ļä¸ĢçĤ¹": 4676,
      "å¾Īæ¸ħæ¥ļ": 4677,
      "å®Įæ¯ķ": 4678,
      "ĠèĢĮéļıçĿĢ": 4679,
      "åĿĲåľ¨": 4680,
      "èĭıæŁĶ": 4681,
      "éĺ³åħī": 4682,
      "åĪĥ": 4683,
      "å¥Ĺ": 4684,
      "åħīåľĪ": 4685,
      "æĬĺ": 4686,
      "æĹ¥åħī": 4687,
      "çº¢åĶĩ": 4688,
      "èĦļå°ĸ": 4689,
      "è¯Ńæ°Ķ": 4690,
      "ä¹¾åĿ¤è¢ĭ": 4691,
      "åħ´å¥ĭ": 4692,
      "åįłæį®": 4693,
      "ĠèĢĮä¸Ķ": 4694,
      "çļĦå¯¹æīĭ": 4695,
      "çĿĢèĲ§çĤİ": 4696,
      "å¤§å°ıçļĦ": 4697,
      "éĵĽ": 4698,
      "æĿ¡ä»¶": 4699,
      "å®īéĿĻçļĦ": 4700,
      "è¿½æĿĢ": 4701,
      "å²³å±±": 4702,
      "ç¬¬ä¹ĿçĻ¾": 4703,
      "ĠæŃ¤æĹ¶": 4704,
      "çļĦåĩºçİ°": 4705,
      "æ°ĶæĹĭ": 4706,
      "åĿĳ": 4707,
      "éĿŀå¸¸": 4708,
      "Ġè§ģåĪ°èĲ§çĤİ": 4709,
      "ĠåĲ¬åĪ°": 4710,
      "ä¸įå¤ª": 4711,
      "å½ĵçľŁæĺ¯": 4712,
      "çģ°è¡£": 4713,
      "åĨ¥å®Ĺ": 4714,
      "æļĤæĹ¶": 4715,
      "åħĢ": 4716,
      "åľ¨äºĨä¸Ģ": 4717,
      "å¤©æīį": 4718,
      "ç¼º": 4719,
      "çľ¼è§Ĵ": 4720,
      "éĻª": 4721,
      "é£Ł": 4722,
      "è¡Ģæ¶²": 4723,
      "æĥĬåı¹": 4724,
      "ä»¤å¾Ĺäºº": 4725,
      "çļĦæĿĢæĦı": 4726,
      "´å°": 4727,
      "çļĦçŁ³": 4728,
      "å°´å°": 4729,
      "çĶ³": 4730,
      "èĢģåħĪçĶŁ": 4731,
      "çĽ¸åĲĮ": 4732,
      "å®ĥçļĦ": 4733,
      "åī§åıĺ": 4734,
      "æ¯ıä¸Ģæ¬¡": 4735,
      "çļĦæĢĴ": 4736,
      "è¿ľè¿ľçļĦ": 4737,
      "æ·±åĲ¸äºĨä¸Ģåı£æ°Ķ": 4738,
      "å¤¹æĿĤçĿĢ": 4739,
      "é¡·åĪ»": 4740,
      "å°´å°¬": 4741,
      "ä¸Ģé¢¤": 4742,
      "åħĭ": 4743,
      "åĬ¨çĶ¨": 4744,
      "åĩºä¸Ģéģĵ": 4745,
      "åĮĸé¾Ļ": 4746,
      "æ¸ħåĦ¿": 4747,
      "åľ¨åħ¶èº«åĲİ": 4748,
      "ä¸Ńå¹´äºº": 4749,
      "åĪĺ": 4750,
      "åĪ°è¾¾": 4751,
      "çŁĹ": 4752,
      "çĶŁæľº": 4753,
      "éĵģéĿĴ": 4754,
      "æ³¨è§Ĩä¸ĭ": 4755,
      "ç©¿æ¢Ń": 4756,
      "çĩĥ": 4757,
      "æ²¸èħ¾": 4758,
      "ĠéĽ·": 4759,
      "ç»Ħ": 4760,
      "æ°Ķå¡Ķ": 4761,
      "èĩªä»İ": 4762,
      "èº«ä½ĵè¡¨éĿ¢": 4763,
      "åĩºçİ°çļĦ": 4764,
      "çļĦæİ¥": 4765,
      "æī¿åıĹ": 4766,
      "çļ±äºĨçļ±": 4767,
      "ä¸Ģåĩ»": 4768,
      "äºĨä»Ģä¹Ī": 4769,
      "æķı": 4770,
      "åľ°åŁŁ": 4771,
      "èĭ¥æĺ¯åĨį": 4772,
      "åħ¶ä»ĸäºº": 4773,
      "çļĦçĤ¼èį¯å¸Ī": 4774,
      "åĩºä¹İ": 4775,
      "è¯ģ": 4776,
      "å¤§ä¼ļ": 4777,
      "ä¸ºä¹ĭ": 4778,
      "åĺī": 4779,
      "å¡Į": 4780,
      "æľĪæĹ¶éĹ´": 4781,
      "ä¿ĿæĮģçĿĢ": 4782,
      "çļĦæĭ³å¤´": 4783,
      "çļĦèĢģ": 4784,
      "å¯¹æŃ¤": 4785,
      "æĭ¢": 4786,
      "çĽ®æłĩ": 4787,
      "ä¸¹ä¼ļ": 4788,
      "å¸ĪåħĦ": 4789,
      "éľĩæħĳ": 4790,
      "éĹŃçĽ®": 4791,
      "çļĦæķ£": 4792,
      "èĭ¦ç¬ĳäºĨä¸Ģå£°": 4793,
      "ç²īæľ«": 4794,
      "çļĦæķĪæŀľ": 4795,
      "èĲ§éĹ¨": 4796,
      "ä¹Łæĺ¯éĢĲæ¸ĲçļĦ": 4797,
      "å½ĵæĹ¥": 4798,
      "è¾½": 4799,
      "ä¸¹æ²³": 4800,
      "å²Ĥ": 4801,
      "åĻĻçĿĢ": 4802,
      "æ»¡æĺ¯": 4803,
      "æ£į": 4804,
      "åĲŀçĤİ": 4805,
      "çļĦæµ·": 4806,
      "åĨ°æ²³è°·": 4807,
      "ģçĦ¶": 4808,
      "ç²ĺ": 4809,
      "æŃ¤åĪ»çļĦ": 4810,
      "çļĦçł¸": 4811,
      "æĸĹå°Ĭå¼ºèĢħ": 4812,
      "éª¨éª¸": 4813,
      "åĺ²è®½": 4814,
      "è¾½éĺĶ": 4815,
      "åħīæ³½": 4816,
      "æ·Į": 4817,
      "å½¢å®¹": 4818,
      "æ¼Ĥ": 4819,
      "é¾Ļçİĭ": 4820,
      "æľĪç¥¨": 4821,
      "é¸Ł": 4822,
      "å¥ĩå¼ĤçļĦ": 4823,
      "åĿļç¡¬": 4824,
      "å®½æķŀ": 4825,
      "å°ĨèĲ§çĤİ": 4826,
      "ä¸īç§į": 4827,
      "èĥ½å¤Łåľ¨": 4828,
      "åı¤æĪŁ": 4829,
      "æļ´æĢĴ": 4830,
      "æīĭæİĮä¸ĢæĮ¥": 4831,
      "åŁİå¢Ļ": 4832,
      "å§ĭç»Ī": 4833,
      "å¤©ç©ºä¸ĬéĤ£": 4834,
      "è¦ĨçĽĸ": 4835,
      "çĶ³å±ł": 4836,
      "çĽ®åħīåľ¨": 4837,
      "æĶ¹": 4838,
      "æĥħç»ª": 4839,
      "èĭıéĨĴ": 4840,
      "äºĨå°Ĩè¿ĳ": 4841,
      "çļĦæ»": 4842,
      "è¢«éĤ£": 4843,
      "çłģ": 4844,
      "ç¾¡": 4845,
      "äº¤æĺĵ": 4846,
      "çŃīäººä¹Łæĺ¯": 4847,
      "èĭ¥çİ°": 4848,
      "æı¡çĿĢ": 4849,
      "åħĪåīįéĤ£": 4850,
      "çģ°èī²": 4851,
      "èº«æĹģçļĦ": 4852,
      "é¢ĩä¸ºçļĦ": 4853,
      "æ¸©åº¦": 4854,
      "çļĦéŃĶ": 4855,
      "ä¸Ģä»¶": 4856,
      "çĽ®åħīä¸Ń": 4857,
      "è¶ģ": 4858,
      "åĲ¸äºĨä¸Ģåı£": 4859,
      "åĪºèĢ³": 4860,
      "æīĢæľīäººéĥ½æĺ¯": 4861,
      "åļ£": 4862,
      "çļĦèº«å½¢": 4863,
      "åľ¨æŃ¤": 4864,
      "é»Ľ": 4865,
      "çļĦç¨": 4866,
      "åĴļ": 4867,
      "çĥĽ": 4868,
      "éļĲèĭ¥çİ°": 4869,
      "çĹ¨": 4870,
      "å¸®åĬ©": 4871,
      "çļĦåĩ¶": 4872,
      "è¿Ļä¾¿æĺ¯": 4873,
      "ä¹Łæ²¡": 4874,
      "èĪ¹": 4875,
      "æķ°çĻ¾": 4876,
      "æ²¡æľīä»»ä½ķ": 4877,
      "çģ°è¢į": 4878,
      "çĦļçĤ¼": 4879,
      "èĻļæĹłåĲŀçĤİ": 4880,
      "éĩĬæĶ¾": 4881,
      "åīĬçĺ¦": 4882,
      "çļĦæľºä¼ļ": 4883,
      "æĿ¯": 4884,
      "æĶ¾çľ¼": 4885,
      "èĭ¥éļĲèĭ¥çİ°": 4886,
      "æķ´çīĩ": 4887,
      "åī§çĹĽ": 4888,
      "åľŁè±Ĩ": 4889,
      "æ·±æ·±çļĦ": 4890,
      "é¡·åĪ»éĹ´": 4891,
      "ä¹ĸ": 4892,
      "ä»ĸåĢĴæĺ¯": 4893,
      "åľ°ä½į": 4894,
      "èĪĴ": 4895,
      "æŃ£å¸¸": 4896,
      "ĠèĢĮå°±åľ¨": 4897,
      "å¦Ĥæŀľä¸įæĺ¯": 4898,
      "æļ´æİłèĢĮåİ»": 4899,
      "æī©æķ£èĢĮåĩº": 4900,
      "å´©æºĥ": 4901,
      "çļĦæ±": 4902,
      "ä¸ĭä¸Ģ": 4903,
      "èĥ½å¤ŁæĦŁè§īåĪ°": 4904,
      "åĴķ": 4905,
      "æľ¬ä½ĵ": 4906,
      "æľ¬æºĲ": 4907,
      "åİĭåĬĽ": 4908,
      "çĽ´æİ¥æĺ¯å°Ĩ": 4909,
      "çļĦæĦıæĸĻ": 4910,
      "çĦļçĤ¼æ°Ķå¡Ķ": 4911,
      "è¯´èµ·æĿ¥": 4912,
      "çĪ½": 4913,
      "é¾Ļå²Ľ": 4914,
      "ç«ŁçĦ¶ä¼ļ": 4915,
      "æī©æķ£èĢĮå¼Ģ": 4916,
      "èĮĥçĹ¨": 4917,
      "æİĴåĲį": 4918,
      "çļĦæĥħåĨµ": 4919,
      "ä¸¸å®«": 4920,
      "ĠåĴ»": 4921,
      "è¿ľåı¤æĪĺåľº": 4922,
      "å°½æķ°çļĦ": 4923,
      "çŃĶåºĶ": 4924,
      "çļĦèį¯æĿĲ": 4925,
      "ãĢĲ": 4926,
      "æ°ĶçļĦ": 4927,
      "éľī": 4928,
      "ä¸İä»ĸä»¬": 4929,
      "åĨħéĥ¨": 4930,
      "æĦŁçŁ¥": 4931,
      "ä½ķç§į": 4932,
      "æĲľ": 4933,
      "å¼¥æ¼«èĢĮåĩº": 4934,
      "åķĨä¼ļ": 4935,
      "çºłç¼ł": 4936,
      "æ¾İæ¹ĥ": 4937,
      "ä¸¹éĽ·": 4938,
      "ä¸ĢèĪ¬çļĦ": 4939,
      "å¹´è½»äºº": 4940,
      "éģ¥éģ¥": 4941,
      "çªĥç§ģ": 4942,
      "è¯±æĥĳ": 4943,
      "çŁĹç«ĭ": 4944,
      "é»Ľçľī": 4945,
      "ä¹Łç»Īäºİæĺ¯": 4946,
      "å±ģ": 4947,
      "æľĢè¿ĳ": 4948,
      "åĲįä¸º": 4949,
      "èµ°è¿Ľ": 4950,
      "æµ®çİ°åĩºæĿ¥": 4951,
      "å¼ķæĿ¥": 4952,
      "æĹ©å°±": 4953,
      "åĲ¦åĪĻ": 4954,
      "æĴĩåĺ´": 4955,
      "çªĥç§ģè¯Ń": 4956,
      "âĢĶ": 4957,
      "ä¸ĢæĥĬ": 4958,
      "åľ¨ä»ĸçļĦ": 4959,
      "å¤©éĺ¶": 4960,
      "è¡Ĺ": 4961,
      "å°Ĩä½ł": 4962,
      "çļĦçĹ": 4963,
      "çİĭçĤİ": 4964,
      "åĲŀåĻ¬ä¹ĭä¸»": 4965,
      "å¹¿åľºä¸Ĭ": 4966,
      "ä»¥ä¸Ģç§įæĥĬäººçļĦéĢŁåº¦": 4967,
      "æ²¡æľīä¸Ŀæ¯«çļĦ": 4968,
      "çªģå¦Ĥåħ¶æĿ¥çļĦ": 4969,
      "é±": 4970,
      "äºĨçīĩåĪ»": 4971,
      "è¿Ļäºĭ": 4972,
      "çĽ®åħīè½¬åĲĳ": 4973,
      "è¡ĢçģµåĤĢ": 4974,
      "åķª": 4975,
      "åĿĬ": 4976,
      "å¤ĸçķĮ": 4977,
      "çļĦäººé©¬": 4978,
      "æĢ¥éĢŁ": 4979,
      "ä¸Ģæī«": 4980,
      "çĿĢçľīå¤´": 4981,
      "ä¹ĭå¿ĥ": 4982,
      "èĲ§æĹı": 4983,
      "åľ°å¦ĸåĤĢ": 4984,
      "åĨħçļĦ": 4985,
      "è·ŁçĿĢ": 4986,
      "çļĦæµ®": 4987,
      "æĬ¬èµ·å¤´æĿ¥": 4988,
      "åĳĪçİ°": 4989,
      "çļĦæľīäºĽ": 4990,
      "ãĢĳ": 4991,
      "äºĨåĩºåİ»": 4992,
      "ç´§å¼ł": 4993,
      "åĬłå¿«": 4994,
      "çİĦç©º": 4995,
      "èĽŁ": 4996,
      "ç²¾è¡Ģ": 4997,
      "æŁĶåĴĮ": 4998,
      "å±ĪæĮĩä¸Ģå¼¹": 4999,
      "çļĦçĬ¶": 5000,
      "ä»Ķç»Ĩ": 5001,
      "é±¼": 5002,
      "ä¸Ģè·¯": 5003,
      "å®ĩ": 5004,
      "åħīå¹ķ": 5005,
      "ä¾¿æĺ¯çĽ´æİ¥": 5006,
      "å¾®åıĺ": 5007,
      "åı¯æ¯Ķ": 5008,
      "è½»æĿ¾": 5009,
      "ä½ķåĨµ": 5010,
      "ä½İä½İ": 5011,
      "éģĵå®Ĺå¼ŁåŃĲ": 5012,
      "æĸĹçģµ": 5013,
      "çĻ½è¡£": 5014,
      "ç¬¬äºĶçĻ¾": 5015,
      "çªģåħĢ": 5016,
      "ç®Ĺä¸įå¾Ĺ": 5017,
      "åĬłåħ¥": 5018,
      "çļĦæĥ³": 5019,
      "æĵĴ": 5020,
      "çī¹åĪ«æĺ¯": 5021,
      "å¤©å¦ĸåĩ°æĹı": 5022,
      "çļĦç¬ĳéģĵ": 5023,
      "éĤ£æĪĳ": 5024,
      "è½»ç¬ĳéģĵ": 5025,
      "æŀģå¼º": 5026,
      "éª¸": 5027,
      "ç»ıéªĮ": 5028,
      "æĳ§": 5029,
      "çĮİ": 5030,
      "çĽ¸åĬ©": 5031,
      "æŃ»äº¡": 5032,
      "æĽ´ä½ķåĨµ": 5033,
      "ç«ŁçĦ¶èĥ½å¤Ł": 5034,
      "çĪĨåĩº": 5035,
      "ä¸ĩéĩĳåķĨä¼ļ": 5036,
      "æĲºå¸¦çĿĢ": 5037,
      "äººç±»": 5038,
      "è®¥": 5039,
      "è¿ĺåľ¨": 5040,
      "ä»İåħ¶ä½ĵåĨħ": 5041,
      "æĻ¨": 5042,
      "å¸®å¿Ļ": 5043,
      "ç§°ä¸º": 5044,
      "©çº¢": 5045,
      "ä¸įçĶĺ": 5046,
      "å¤©èĽĩ": 5047,
      "ä¹Łæĺ¯åıĺå¾Ĺ": 5048,
      "æĪĳæīĢ": 5049,
      "å°ıå¥³åŃ©": 5050,
      "å¼ĢäºĨ": 5051,
      "çĸ²": 5052,
      "ä»ĸçļĦçĽ®åħī": 5053,
      "å¯¹äºİè¿Ļ": 5054,
      "è®¤è¯Ĩ": 5055,
      "åĪºçľ¼": 5056,
      "å´©è£Ĥ": 5057,
      "æ¶Įä¸Ĭä¸ĢæĬ¹": 5058,
      "éĵºå¤©çĽĸåľ°çļĦ": 5059,
      "çİĦç©ºåŃĲ": 5060,
      "éĹ´çļĦ": 5061,
      "éĥ½æ²¡": 5062,
      "éĽģ": 5063,
      "æĽ¿": 5064,
      "çŃīçŃī": 5065,
      "éĹ¨åı£": 5066,
      "éĺµå®¹": 5067,
      "å¸Ńä½į": 5068,
      "å¾ĲéĴŁ": 5069,
      "å¥¥æīĺ": 5070,
      "èĮ«çĦ¶": 5071,
      "ä½łèĭ¥æĺ¯": 5072,
      "çļĦç£": 5073,
      "æľĽçĿĢè¿Ļä¸Ģå¹ķ": 5074,
      "åºŀæĺĬ": 5075,
      "åıĮèĩĤ": 5076,
      "ä¸»åĬ¨": 5077,
      "æīĢæľīçļĦ": 5078,
      "å«©": 5079,
      "çĦļçĤİè°·": 5080,
      "çļĦéĹ®éģĵ": 5081,
      "åĩĽ": 5082,
      "ç§įç§į": 5083,
      "åĩłä½į": 5084,
      "çĻ½ç¨ĭ": 5085,
      "å¿ĥä¸Ńä¹Łæĺ¯": 5086,
      "ç¬¬ä¸Ģåįĥä¸ĢçĻ¾": 5087,
      "æł¼å¤ĸçļĦ": 5088,
      "æĨ¾": 5089,
      "ĠèĻ½è¯´": 5090,
      "ä¸Ĭæĸ¹": 5091,
      "æĬĽ": 5092,
      "æĪĲå°±": 5093,
      "è½»ç¬ĳ": 5094,
      "ä¿®éķ¿": 5095,
      "ç´«éĩĳ": 5096,
      "çĶ·äºº": 5097,
      "èĩªçĦ¶ä¾¿æĺ¯": 5098,
      "èµ¶ç´§": 5099,
      "æĵįæİ§": 5100,
      "æĪĲä¸ºäºĨ": 5101,
      "çļĦæ¶Īæķ£": 5102,
      "ç¨įç¨į": 5103,
      "äºĨä¸Ĭåİ»": 5104,
      "ä»ĸéĤ£": 5105,
      "ä¹Łèĥ½": 5106,
      "å¯¹ä½ł": 5107,
      "æĭľ": 5108,
      "èĩªåĬ¨": 5109,
      "å®ŀçļĦ": 5110,
      "è°ĳ": 5111,
      "æİ¥è¿ĩ": 5112,
      "ä¼łè¯´": 5113,
      "èĻļå½±": 5114,
      "å²©æŀŃ": 5115,
      "æıĲçĤ¼": 5116,
      "èĶĵå»¶èĢĮå¼Ģ": 5117,
      "çļĦç´§": 5118,
      "å¤©çģ«ä¸ī": 5119,
      "ĠåĶ°": 5120,
      "ä¹³": 5121,
      "éĤ£æĹ¶åĢĻ": 5122,
      "çļĦæ¬": 5123,
      "ï¼ģâĢľ": 5124,
      "èĤĥ": 5125,
      "çģµèį¯": 5126,
      "ä¸ĥçİĭæ®¿": 5127,
      "åĲŁåĲŁ": 5128,
      "çŀ³åŃĶ": 5129,
      "çĦļåĨ³": 5130,
      "åħ¬ä¼ļ": 5131,
      "æĪıè°ĳ": 5132,
      "åŁºæľ¬": 5133,
      "çļĦèµĦæł¼": 5134,
      "å±ĭ": 5135,
      "æĦıæĸĻ": 5136,
      "çĽĺæĹĭ": 5137,
      "åįĥä¸Ī": 5138,
      "åĳ¨åĽ´çļĦ": 5139,
      "ç»¿èī²": 5140,
      "éĽ·éľĨç¥ĸç¬¦": 5141,
      "éļĲçº¦éĹ´": 5142,
      "ä¸ĢåĿĹ": 5143,
      "çĽ¾": 5144,
      "åīįæĿ¥": 5145,
      "æľīçĿĢä¸ĢæĬ¹": 5146,
      "ä»ĸä»¬éĥ½": 5147,
      "ä¸¤å¤§": 5148,
      "ä½Ĩåį´æĺ¯": 5149,
      "ä¼łæĿ¥çļĦ": 5150,
      "æĴ¤": 5151,
      "å¸¸äºº": 5152,
      "çļĦæ°´": 5153,
      "èĮ¶": 5154,
      "çļĦæµģ": 5155,
      "æ¬£èĵĿ": 5156,
      "ç¢§ç»¿çģ«çĦ°": 5157,
      "å·¥": 5158,
      "åĳĥ": 5159,
      "çļĦç¿": 5160,
      "èį¯å°ĺ": 5161,
      "è´£": 5162,
      "æŃ¦é¦Ĩ": 5163,
      "é³Ħ": 5164,
      "çļĦæĬ¬": 5165,
      "éĽªçĻ½": 5166,
      "æ··èĽĭ": 5167,
      "æĭįåįĸä¼ļ": 5168,
      "æ¬£åĸľ": 5169,
      "æ³¥ä¸¸å®«": 5170,
      "ç¯·": 5171,
      "å¤©çģ«ä¸īçİĦ": 5172,
      "ä¹Łæĺ¯éĻ¡çĦ¶": 5173,
      "æĮĤ": 5174,
      "éĥ½æĺ¯åıĺå¾Ĺ": 5175,
      "æļ´åĨ²": 5176,
      "æºľ": 5177,
      "åľ¨äºĨéĤ£": 5178,
      "åĸ·åĩº": 5179,
      "çļĦçŃī": 5180,
      "çļĦéĢŁåº¦": 5181,
      "ä»ĸä¸İ": 5182,
      "äººç¾¤": 5183,
      "å·§": 5184,
      "å°Ĩä»ĸä»¬": 5185,
      "å¤ļè¯´": 5186,
      "æİĮå¿ĥä¸Ń": 5187,
      "æ¯Ķè¯ķ": 5188,
      "ä»ĸçļĦå®ŀåĬĽ": 5189,
      "æ£ĺæīĭ": 5190,
      "éĢļä½ĵ": 5191,
      "æĢİä¹Īæł·": 5192,
      "éĢĥçªľ": 5193,
      "ç°ĩ": 5194,
      "åĿ¦åŁİ": 5195,
      "çļĦåĨ²": 5196,
      "ä»Ĺ": 5197,
      "å¤©çĦļçĤ¼æ°Ķå¡Ķ": 5198,
      "åĽļ": 5199,
      "åħ¶åĲİ": 5200,
      "åīįéĿ¢": 5201,
      "æĸĹä¹ĭæ°Ķ": 5202,
      "çŃīçĿĢ": 5203,
      "æŀģå¤§çļĦ": 5204,
      "ä»ħæľī": 5205,
      "éĿ¢èī²åĩĿéĩį": 5206,
      "èļģ": 5207,
      "æĬ½æĲĲ": 5208,
      "ä¸Ģèº«": 5209,
      "æľīè¿ĩ": 5210,
      "èĥ½èĢĲ": 5211,
      "ä¸İæĪĳ": 5212,
      "éŃĶçĭ±": 5213,
      "æ£º": 5214,
      "è±ģçĦ¶": 5215,
      "åģľæŃ¢": 5216,
      "æĪĴæĮĩ": 5217,
      "æĳĨæīĭ": 5218,
      "ä¸Ģçļ±": 5219,
      "ä¸ĬæĿ¥": 5220,
      "ç»ĩ": 5221,
      "ä¹Łæĺ¯éĢĲæ¸Ĳ": 5222,
      "æļĸ": 5223,
      "è¿ĽæĿ¥": 5224,
      "çĭłè¾£": 5225,
      "æ¶ĮåĩºæĿ¥": 5226,
      "å¼ķèµ·": 5227,
      "æ¹®": 5228,
      "å¾Īå¤ļäºº": 5229,
      "âĻĢâĻĢ": 5230,
      "åĬ¨ä½ľ": 5231,
      "èĲİ": 5232,
      "çģ¾": 5233,
      "åľ°åĽ¾": 5234,
      "çŁĽ": 5235,
      "æĹıä¸Ń": 5236,
      "æ´Ĺ": 5237,
      "è§ģåĪ°éĤ£": 5238,
      "ç«ŁçĦ¶è¿ĺ": 5239,
      "ä»ħä»ħæĺ¯": 5240,
      "çº³åħ°æ¡Ģ": 5241,
      "éķĩåİĭ": 5242,
      "éªļåĬ¨": 5243,
      "å¤©çģ«ä¸īçİĦåıĺ": 5244,
      "éŀ": 5245,
      "åı®": 5246,
      "ä»ĸåį´æĺ¯": 5247,
      "éĩĩ": 5248,
      "åĬĽçļĦ": 5249,
      "å¼Ĥæł·": 5250,
      "èĦ±ç¦»": 5251,
      "æĮĳæĪĺ": 5252,
      "æİ¢åĩº": 5253,
      "ä»ĸèĥ½å¤ŁæĦŁè§īåĪ°": 5254,
      "ç®ĢçĽ´å°±æĺ¯": 5255,
      "å¾Ĺä¸į": 5256,
      "çľĭåĩº": 5257,
      "éĻĢ": 5258,
      "èµ°åĪ°": 5259,
      "éĴĪ": 5260,
      "é¢¤æĬĸçĿĢ": 5261,
      "ç¬¼ç½©çĿĢ": 5262,
      "å¦Ħ": 5263,
      "æĻĵ": 5264,
      "çıį": 5265,
      "æĢ»å½Ĵ": 5266,
      "ä¹Łæĺ¯åľ¨æŃ¤æĹ¶": 5267,
      "çļĦå¼º": 5268,
      "äºĨä¸ª": 5269,
      "åĬ¨åľ°": 5270,
      "èĲ§çĤİä¹Ł": 5271,
      "å¯¹æĪĳ": 5272,
      "æĮ¤": 5273,
      "ç¼ĵæħ¢": 5274,
      "çļĦçĿ": 5275,
      "è¡Ģåħī": 5276,
      "éĩįçļĦ": 5277,
      "è¿Ļç§įåľ°æŃ¥": 5278,
      "äºĳèĬĿ": 5279,
      "æĢ¥ä¿ĥ": 5280,
      "éĵ¶çīĻ": 5281,
      "åĪĴè¿ĩ": 5282,
      "çĲ¥åĺī": 5283,
      "åļ£å¼ł": 5284,
      "çļĦæµ®çİ°": 5285,
      "è¯Ģ": 5286,
      "å¿§": 5287,
      "å¤§èµĽ": 5288,
      "æĥķ": 5289,
      "æ²Ī": 5290,
      "åľ°å¸¦": 5291,
      "çļĦçħ": 5292,
      "ä»ĸä»¬ä¹Ł": 5293,
      "ä¸įè¿ĩå¥½": 5294,
      "çŀĳ": 5295,
      "æĤ¸": 5296,
      "è¥¿åĮĹ": 5297,
      "äºĶäºº": 5298,
      "èĭ¥çĲ³": 5299,
      "ä¹ĮåĿ¦åŁİ": 5300,
      "éĹªçİ°èĢĮåĩº": 5301,
      "çľ¨çľ¼éĹ´": 5302,
      "èŃ¦æĥķ": 5303,
      "çļĦå°ĳå¥³": 5304,
      "çĽĴ": 5305,
      "å¿ĥèĦı": 5306,
      "åĸĺ": 5307,
      "ä¹Ŀå°¾": 5308,
      "äº¤éĶĭ": 5309,
      "çľĭæĿ¥è¿Ļ": 5310,
      "æĲ½": 5311,
      "éº»éº»": 5312,
      "æ³¨æĦı": 5313,
      "çļĦé»ĳè¢į": 5314,
      "åĩłä¹İæĺ¯åľ¨": 5315,
      "åºŁçī©": 5316,
      "éĿĴèİ²åľ°å¿ĥçģ«": 5317,
      "å¿«èĭ¥éĹªçĶµèĪ¬çļĦ": 5318,
      "èµ«çĦ¶ä¾¿æĺ¯": 5319,
      "å¤ªæ¸ħå®«": 5320,
      "å£°åĸĿéģĵ": 5321,
      "æ³»": 5322,
      "å¼Ģåİ»": 5323,
      "éĥ½æĺ¯æĹłæ³ķ": 5324,
      "åĴĲ": 5325,
      "éĽ·é¸£": 5326,
      "çķ¥æĦŁ": 5327,
      "è¾¹ç¼ĺ": 5328,
      "åĲĲåĩº": 5329,
      "ä¹Įäºĳ": 5330,
      "æģŃæķ¬": 5331,
      "Ġå°Ĩ": 5332,
      "ä¸Ģéľĩ": 5333,
      "åİĮ": 5334,
      "ç¬ĳåĲŁåĲŁ": 5335,
      "æĪĳåĢĴæĺ¯": 5336,
      "è®Ń": 5337,
      "èĩªæŀĹåĬ¨": 5338,
      "çļĦçĮ": 5339,
      "æĶĢ": 5340,
      "æĤĶ": 5341,
      "å¦ĸçŀĳ": 5342,
      "éĺ´å½±": 5343,
      "ç´«èī²": 5344,
      "æ£®çĻ½": 5345,
      "æĢİä¹ĪåĬŀ": 5346,
      "çļĦæĥ¨": 5347,
      "æ¼łçĦ¶": 5348,
      "å¯Ĩéº»éº»": 5349,
      "æĤĦçĦ¶çļĦ": 5350,
      "ç¬¬ä¸īæĽ´": 5351,
      "æĶ¾å¿ĥåĲ§": 5352,
      "åłªç§°": 5353,
      "ä¾¿èµ°åĩºçİ°åľ¨äºĨ": 5354,
      "çľĭè¿Ļæ¨¡æł·": 5355,
      "éĿĴéĺ³éķĩ": 5356,
      "åİĦéļ¾æ¯Ĵä½ĵ": 5357,
      "âĺĨâĺĨ": 5358,
      "âĶ": 5359,
      "çļĦåħīèĬĴ": 5360,
      "çĿĢå¤´": 5361,
      "å¿Ĩ": 5362,
      "å¿Ĺ": 5363,
      "åĢĴéľī": 5364,
      "ç«ĭåį³": 5365,
      "èĵĿèī²": 5366,
      "åİŁæĿ¥æĺ¯": 5367,
      "åľ¨å¤©ç©ºä¸Ĭ": 5368,
      "èĲ§çĤİæīĢ": 5369,
      "å¤§å¤©": 5370,
      "å¯¹åħ¶": 5371,
      "å®¹è²Į": 5372,
      "é£ŀå¿«": 5373,
      "å¯Ĩå¯Ĩéº»éº»": 5374,
      "åĸĥåĸĥèĩªè¯Ń": 5375,
      "éŃıéĢļ": 5376,
      "çĽ¯": 5377,
      "åŃ¤": 5378,
      "ä½ķæĹ¶": 5379,
      "åľ¨è¿Ļä¸ª": 5380,
      "åĳ¨åĽ´éĤ£äºĽ": 5381,
      "Ġè¢«": 5382,
      "ä¸Ģå¤©": 5383,
      "ä¸įå®ī": 5384,
      "éĤ£æł·": 5385,
      "å¾ĹæľīäºĽ": 5386,
      "éĿ¢çĽ¸": 5387,
      "æ·¡ç¬ĳéģĵ": 5388,
      "æ²¡æľīä»Ģä¹Ī": 5389,
      "åįĬå¹´": 5390,
      "èĻļå¼±": 5391,
      "ä¼¤å®³": 5392,
      "çŀ¬éĹ´ä¾¿æĺ¯": 5393,
      "åĴ¬äºĨ": 5394,
      "åĺ´ä¸Ńä¼łåĩº": 5395,
      "ç¬¬ä¸Ģåįĥä¸¤çĻ¾": 5396,
      "çĭ¼çĭĪçļĦ": 5397,
      "åĢ¾æ³»": 5398,
      "åĺ¶åĵĳ": 5399,
      "ä¹Ŀå¤©å¤ªæ¸ħå®«": 5400,
      "åĬ¨äºº": 5401,
      "çĤİç¥ŀæ®¿": 5402,
      "ä¸İä½ł": 5403,
      "éŃĶçĤİè°·": 5404,
      "åĩłåįģ": 5405,
      "å¿ĥä¸ŃçļĦ": 5406,
      "æīĵçł´": 5407,
      "ä¸įä¼ļåĨį": 5408,
      "èĢ³ä¸Ń": 5409,
      "ä»£è¡¨": 5410,
      "æĭ¼åĳ½": 5411,
      "è§£åĨ³æİī": 5412,
      "ä¼ĳæģ¯": 5413,
      "çļĦæ¯Ĵ": 5414,
      "éģĹè¿¹": 5415,
      "Ġå°ıçĤİ": 5416,
      "äº«": 5417,
      "éĤ£æīĢè°ĵçļĦ": 5418,
      "çļĦæĤ": 5419,
      "çļĦç¦": 5420,
      "æ¯Ķä¸įä¸Ĭ": 5421,
      "åĽĽè±¡": 5422,
      "ä¸įæĺ¯ä»Ģä¹Ī": 5423,
      "ä»¤å¾ĹèĲ§çĤİ": 5424,
      "ç´«æĻ¶": 5425,
      "åİŁåĽł": 5426,
      "æĴŀåĩ»": 5427,
      "æ¿ĢçĥĪ": 5428,
      "å°ļè¿ĺ": 5429,
      "åľ¨äºĨä¸Ģèµ·": 5430,
      "äºĨä¸¤": 5431,
      "äºĨæĳĨæīĭ": 5432,
      "å±±èĢģäºº": 5433,
      "åįģæĿ¥": 5434,
      "èĻ¹": 5435,
      "è§ģåĪ°èĲ§çĤİ": 5436,
      "è¿ŀä»ĸ": 5437,
      "çł´åĿı": 5438,
      "çł´é£İå£°": 5439,
      "éļ¾ä»¥ç½®ä¿¡": 5440,
      "æĸĹçİĭå¼ºèĢħ": 5441,
      "åķ§åķ§": 5442,
      "Ĺä¼¤": 5443,
      "æĺ¯ä»Ģä¹Ī": 5444,
      "äºĨå¥½": 5445,
      "ä¸įå¯¹": 5446,
      "ä¹Łå¤ª": 5447,
      "ä¹Łå°Ĩä¼ļ": 5448,
      "ç»ļ": 5449,
      "æ²«": 5450,
      "ç©·": 5451,
      "è¯´äºĨ": 5452,
      "æ¯Ķè¾ĥ": 5453,
      "æĹ¥æĹ¶éĹ´": 5454,
      "çĭ¼å¸®": 5455,
      "çĻ¾æľĿå¤§æĪĺ": 5456,
      "ä¸Ģè½¬": 5457,
      "åħ±": 5458,
      "çĦ¶å¤§": 5459,
      "ä¹ĭæ³ķ": 5460,
      "å¾ĹæĦı": 5461,
      "é»ĳçļĩ": 5462,
      "å¥½å¥½": 5463,
      "åĲįå£°": 5464,
      "éļıæĦıçļĦ": 5465,
      "å¿ħå®ļ": 5466,
      "ç²¾çº¯": 5467,
      "åĩĮåİīçļĦ": 5468,
      "æ¢µ": 5469,
      "è¹¬": 5470,
      "éĹªæİłèĢĮåĩº": 5471,
      "èĲ§çĤİåľ¨": 5472,
      "è¡Ģè¿¹": 5473,
      "éĽ·äºĳ": 5474,
      "æĻ¦": 5475,
      "åĩ»è´¥": 5476,
      "ç»Ĩå°ı": 5477,
      "æ¶ħçĽĺä¸¹": 5478,
      "åĵĹçĦ¶": 5479,
      "åĩ¤æ¸ħåĦ¿": 5480,
      "ä¼ĺç§Ģ": 5481,
      "ãĢĳ_": 5482,
      "èĭ¥çĲ³å¯¼å¸Ī": 5483,
      "è§ģè¯Ĩ": 5484,
      "çķľ": 5485,
      "åĤ»": 5486,
      "æµģæ·Į": 5487,
      "çļĦæĶ¾": 5488,
      "å·®ä¸įå¤ļ": 5489,
      "è¿Ĳæ°Ķ": 5490,
      "çº¯åħĥä¸¹": 5491,
      "çľĭäºĨçľĭ": 5492,
      "åĳĨæ»ŀ": 5493,
      "æł¹æľ¬å°±": 5494,
      "åĹ¡åĹ¡": 5495,
      "åľ°å¿ĥ": 5496,
      "éĿ¢éĿ¢çĽ¸": 5497,
      "çģ«å±±": 5498,
      "ä¸İæŀĹåĬ¨": 5499,
      "ä¸İæŃ¤": 5500,
      "çĻ»": 5501,
      "å¾ħä¼ļ": 5502,
      "é»ĳèī²çļĦ": 5503,
      "æ£®åĨ·": 5504,
      "å¹²ä»Ģä¹Ī": 5505,
      "èĢ³è¾¹": 5506,
      "ç¿İæ³ī": 5507,
      "éĴ»è¿Ľ": 5508,
      "æĤĦæĤĦçļĦ": 5509,
      "ç»ļä¸½": 5510,
      "ĠæīĢä»¥": 5511,
      "ä¸ĵ": 5512,
      "åľ¨æŃ¤å¤Ħ": 5513,
      "æĹ¶çļĦ": 5514,
      "ä¹Łæĺ¯å¼Ģå§ĭ": 5515,
      "ç«ĸ": 5516,
      "è¾Ľ": 5517,
      "è·ª": 5518,
      "ä»İçº³æĪĴä¸Ń": 5519,
      "çł´ç¢İ": 5520,
      "åºķçīĮ": 5521,
      "å¥ĩæĢª": 5522,
      "éĹŃä¸Ĭ": 5523,
      "çļĦèĥ½éĩıæ³¢åĬ¨": 5524,
      "è®°å¾Ĺ": 5525,
      "çĴĥ": 5526,
      "å¸Ńåį·å¼ĢæĿ¥": 5527,
      "èĲ§çĤİçľīå¤´": 5528,
      "çļĦæį": 5529,
      "ä¹Łæĺ¯å¾®å¾®ä¸Ģ": 5530,
      "ç§įæĹı": 5531,
      "é»İ": 5532,
      "åı¯æ²¡": 5533,
      "è§ģéĿ¢": 5534,
      "é»ĳèĬĴ": 5535,
      "èį¯æĸ¹": 5536,
      "å°ĳçĪ·": 5537,
      "çĮ©çº¢": 5538,
      "éļıæĹ¶": 5539,
      "éĥĳ": 5540,
      "çĽ¯çĿĢéĤ£": 5541,
      "èħ¾åĦ¡": 5542,
      "çļĦæľĽçĿĢè¿Ļä¸Ģå¹ķ": 5543,
      "åĬŀåĪ°": 5544,
      "æĪ¿éĹ¨": 5545,
      "çļĦéķ¿èĢģ": 5546,
      "å¯¨": 5547,
      "æīĢå¹¸": 5548,
      "éľŀ": 5549,
      "åĿĽ": 5550,
      "çľ¼ä¸Ńæİłè¿ĩä¸ĢæĬ¹": 5551,
      "çļĩå®¤": 5552,
      "æĹłå¥ĪçļĦ": 5553,
      "æĬ±æŃī": 5554,
      "éĤªæģ¶": 5555,
      "å¤§åİħä¸Ń": 5556,
      "çļĦå¯¹": 5557,
      "èĢĮå½ĵ": 5558,
      "æģ¼": 5559,
      "è¿Ļç§įæĹ¶åĢĻ": 5560,
      "åĲ¬çĿĢ": 5561,
      "å¯¹äºİä»ĸ": 5562,
      "ç¨ł": 5563,
      "åĳ¼å£°": 5564,
      "æ³¨è§ĨçĿĢ": 5565,
      "åĮħåĽ´": 5566,
      "æ¼Ĩé»ĳçļĦ": 5567,
      "æ²īåĲŁéģĵ": 5568,
      "éĻĢèĪį": 5569,
      "Ġç»«æ¸ħç«¹": 5570,
      "Ġè¯ĿéŁ³": 5571,
      "ï¼ĮâĢĿ": 5572,
      "è¯´æĺ¯": 5573,
      "æľĢå¤§çļĦ": 5574,
      "è¿ĽåĮĸ": 5575,
      "æŃ¦åĻ¨": 5576,
      "è·¯çº¿": 5577,
      "çľŁçļĦæĺ¯": 5578,
      "åįİå®Ĺ": 5579,
      "æĺĬä¹Ŀå¹½": 5580,
      "çļĦçŀ¥": 5581,
      "ĪçļĦ": 5582,
      "ä¹Łå¥½": 5583,
      "æŀĹæ¢µ": 5584,
      "åľ°éŃĶ": 5585,
      "å¤ĦçļĦ": 5586,
      "èĤļ": 5587,
      "å§ĳ": 5588,
      "çļĦæķ°": 5589,
      "åĭ¾": 5590,
      "å¤§èįĴéĥ¡": 5591,
      "è¿ĺä¸įå¾ħ": 5592,
      "ç´§éĹŃçļĦ": 5593,
      "å¤©å¦ĸè²ĤæĹı": 5594,
      "çļĦæľĢ": 5595,
      "çļĦæĽ": 5596,
      "ç»©": 5597,
      "ä¸ĭéĿ¢": 5598,
      "å¤©åºľ": 5599,
      "ï¼ģãĢĳ_": 5600,
      "éĥ½èĥ½": 5601,
      "å°ıåıĭ": 5602,
      "çľ¼åħī": 5603,
      "è¿ĺå¾Ĺ": 5604,
      "æľ¬åĳ½": 5605,
      "èĭ¥æĺ¯æľī": 5606,
      "è§ģåĪ°è¿Ļä¸Ģå¹ķ": 5607,
      "å¦ĤæŃ¤ä¹ĭ": 5608,
      "éĢłå½¢": 5609,
      "åĢ¾æ´Ĵ": 5610,
      "åĮ¹ç»ĥ": 5611,
      "å²ģæľĪ": 5612,
      "ç½ķè§ģ": 5613,
      "åĢĴé£ŀèĢĮåĩº": 5614,
      "çĩĥçĥ§": 5615,
      "éĿ¢éĿ¢çĽ¸è§ĳ": 5616,
      "ä¸Ģåĩºçİ°": 5617,
      "ä¸Ģç¼©": 5618,
      "æľĹ": 5619,
      "å½ĵåľº": 5620,
      "éĹªéģ¿": 5621,
      "æİłåİ»": 5622,
      "ä¸ĢæĬĸ": 5623,
      "éļĲéļĲæľīçĿĢ": 5624,
      "èµ¶è·¯": 5625,
      "éĢĴ": 5626,
      "éĥ½æĺ¯ä¼ļ": 5627,
      "ĠæŀĹåĬ¨çľ¼ç¥ŀ": 5628,
      "åĬłåĪĳ": 5629,
      "æīĵéĩı": 5630,
      "æļĹèĩª": 5631,
      "å¼¥æ¼«èĢĮå¼Ģ": 5632,
      "èĤīçľ¼": 5633,
      "çļĦçģµéŃĤåĬĽéĩı": 5634,
      "èº²éģ¿": 5635,
      "Ġåı¤": 5636,
      "äºĨè¿Ļ": 5637,
      "ä¹ĭè¾Ī": 5638,
      "å¤§æī¹": 5639,
      "æŀĹåĬ¨ä¸İ": 5640,
      "æ¬º": 5641,
      "ä¸īçĻ¾": 5642,
      "è¿Ľè¡Į": 5643,
      "æĬĬæı¡": 5644,
      "è¸ıåħ¥äºĨ": 5645,
      "åĲĦä½į": 5646,
      "éĢīæĭĶ": 5647,
      "¹ģ": 5648,
      "ãĢı": 5649,
      "æŀĹåĬ¨éĤ£": 5650,
      "å¤©è¡Į": 5651,
      "æĪĳçľĭ": 5652,
      "çľ¼åĬĽ": 5653,
      "äºĨä¸Ģçķª": 5654,
      "è¡Ģçĭ¼å¸®": 5655,
      "æĹĭåį³çĽ®åħī": 5656,
      "å¤ªä¹ħ": 5657,
      "åĶ¾": 5658,
      "æĬķå°Ħ": 5659,
      "éĺ»ç¢į": 5660,
      "è®¥è®½": 5661,
      "ä»ĭ": 5662,
      "äºĨæĳĬ": 5663,
      "çļĦæħ": 5664,
      "åĪ°æŀģèĩ´": 5665,
      "éĥ½è¦ģ": 5666,
      "èĩªåħ¶ä¸Ń": 5667,
      "çŃ¹": 5668,
      "æĪĺåŁŁ": 5669,
      "å£°éŁ³ä¸Ń": 5670,
      "å¦ĤæŃ¤çļĦ": 5671,
      "åıįæĬĹ": 5672,
      "æ´ŀåºľ": 5673,
      "æ²¡æĥ³åĪ°è¿Ļ": 5674,
      "å°ģéĶģ": 5675,
      "é»ĳæļĹä¹ĭ": 5676,
      "æĬ±æĭ³": 5677,
      "ä¸įè¿ľå¤ĦçļĦ": 5678,
      "èı©æıĲåı¤æłĳ": 5679,
      "æĤŁéģĵ": 5680,
      "éĻĦè¿ĳ": 5681,
      "éĻĢèĪįåı¤å¸Ŀ": 5682,
      "ä¸Ģæĸ¹": 5683,
      "å®£": 5684,
      "ä¾¿æĺ¯åĮĸä¸º": 5685,
      "å°ıè§ĳ": 5686,
      "åĺ»": 5687,
      "åħ½æĪĺåŁŁ": 5688,
      "æī¾æŃ»": 5689,
      "è¿ľå¤ĦçļĦ": 5690,
      "æĭ¦ä½ı": 5691,
      "ç¬¬ä¸īçĻ¾": 5692,
      "èĦ¸åºŀä¸ĬçļĦç¬ĳå®¹": 5693,
      "ä¸İæŃ¤åĲĮæĹ¶": 5694,
      "ä¸Ģé¡¿": 5695,
      "ä¹ĭçģ«": 5696,
      "ä»ĸå¿ĥä¸Ń": 5697,
      "ä¼Ĭ": 5698,
      "ä¾¿æĺ¯éĻ¡çĦ¶": 5699,
      "åĵŃ": 5700,
      "çļĦç½": 5701,
      "å¢ĥçķĮ": 5702,
      "æ»¡æĦı": 5703,
      "è·Łä¸Ĭ": 5704,
      "èº«åĲİçļĦ": 5705,
      "æŁ³çľī": 5706,
      "çĭłçĭłçļĦå¯¹çĿĢ": 5707,
      "æµĵéĥģçļĦ": 5708,
      "è¶ħçº§çİĭæľĿ": 5709,
      "ç¬¬ä¸ĥçĻ¾": 5710,
      "ä¸Ģå±Ĥ": 5711,
      "ä¹Łæĺ¯åĽłä¸º": 5712,
      "èī°": 5713,
      "çģ«èĥ½": 5714,
      "é£İèĭį": 5715,
      "åĲĳéĤ£": 5716,
      "éļıæīĭ": 5717,
      "è£Ĥå¼Ģ": 5718,
      "è¿Ļçīĩç©ºéĹ´": 5719,
      "ç¬¬åħŃçĻ¾": 5720,
      "Ġä¸¤äºº": 5721,
      "ĸåŃĲ": 5722,
      "ľæĬ¤æ³ķ": 5723,
      "å®ľ": 5724,
      "å¤§åľĨæ»¡": 5725,
      "å°ıè¾Ī": 5726,
      "æŃ¤çķª": 5727,
      "èĭĹ": 5728,
      "èĤĮ": 5729,
      "åı£æ°Ķ": 5730,
      "æľĢåĲİåĮĸä¸º": 5731,
      "çº¢è¡£": 5732,
      "çĲª": 5733,
      "å·²ç»ıè¢«": 5734,
      "èĦļä¸ĭ": 5735,
      "éŁ©éĽª": 5736,
      "çļĦæİ¨": 5737,
      "èī²çļĦçģ«çĦ°": 5738,
      "å°ĺçľŁ": 5739,
      "åģľçķĻåľ¨": 5740,
      "æŁĲç§į": 5741,
      "èĪŀåĬ¨": 5742,
      "æ¢¦çĲª": 5743,
      "åĬłåĪĳå¤©": 5744,
      "çĤİä¸»": 5745,
      "èºģ": 5746,
      "å¤´çĸ¼": 5747,
      "åľ°åĨ¥": 5748,
      "èĢģæĢª": 5749,
      "äºĨä¸Ģä¸Ŀ": 5750,
      "ä¸¹çĶ°": 5751,
      "åıĳçĶŁ": 5752,
      "åħ¨åľº": 5753,
      "äº¤ç»Ļ": 5754,
      "èİ«å¤©è¡Į": 5755,
      "éĵģæľ¨": 5756,
      "å¹²æŀ¯": 5757,
      "ä½¿å¾Ĺ": 5758,
      "åĩĦæĥ¨": 5759,
      "æ§ĥ": 5760,
      "åľ°åĨ¥èŁĴ": 5761,
      "ä¹ī": 5762,
      "æĪĳè¦ģ": 5763,
      "æŀģéĻĲ": 5764,
      "åĩłéģĵ": 5765,
      "çļĦä¸Ģå¹ķ": 5766,
      "çĽĺèħ¿": 5767,
      "åĩĮç©º": 5768,
      "é¼ĵ": 5769,
      "è¹¦": 5770,
      "ä¸ĢæĮ¯": 5771,
      "ä¾Ľ": 5772,
      "å¤§çľ¼çĿĽ": 5773,
      "å·¢": 5774,
      "å£°åĵįèµ·": 5775,
      "ä½łåı¯": 5776,
      "å±ı": 5777,
      "æĹłè§Ĩ": 5778,
      "èĻĳ": 5779,
      "å¾Īå°ĳ": 5780,
      "çĽ¯çĿĢæŀĹåĬ¨": 5781,
      "é²²": 5782,
      "èĬ±å®Ĺ": 5783,
      "æ¶ħçĽĺåĬ«": 5784,
      "è¶ħè¶Ĭ": 5785,
      "è¹Ļ": 5786,
      "æĳĨäºĨæĳĨæīĭ": 5787,
      "ä¹Ŀå¹½åľ°åĨ¥èŁĴ": 5788,
      "çĦļå¤©é¼İ": 5789,
      "èĢĥæł¸": 5790,
      "Ġè¿Ļä¸Ģ": 5791,
      "çļĦåĨ°": 5792,
      "çļĦèº«ä»½": 5793,
      "æĺ¯æĪĳ": 5794,
      "äºĨæĳ¸": 5795,
      "ä¾ĭ": 5796,
      "æİª": 5797,
      "è¦ģæ±Ĥ": 5798,
      "æĹłåĮ¹": 5799,
      "ĠæŀĹåĬ¨çļĦ": 5800,
      "çļĦä¸Ģå¤Ħ": 5801,
      "åĩºçİ°æĹ¶": 5802,
      "å¹³åİŁ": 5803,
      "çĤ¼èį¯æľ¯": 5804,
      "è¿ľåı¤é¾Ļ": 5805,
      "çģ°çĥ¬": 5806,
      "çº¹ä¸Ŀ": 5807,
      "æ¸©åĴĮ": 5808,
      "åįİè¾°": 5809,
      "çļĦæŁ³": 5810,
      "æľīåı¯èĥ½": 5811,
      "æĹłåı¯": 5812,
      "çīĽ": 5813,
      "ä¸İä¹ĭ": 5814,
      "çķħ": 5815,
      "ç´¯": 5816,
      "çĥĤ": 5817,
      "æľĢåĲİåľ¨": 5818,
      "å²©å¤§å¸Ī": 5819,
      "Ġè§ģåĪ°è¿Ļä¸Ģå¹ķ": 5820,
      "çļĦçĽ¯çĿĢæŀĹåĬ¨": 5821,
      "é¢Ĩå¤´": 5822,
      "ä¸įç®¡æĢİæł·": 5823,
      "å§ļç¿İ": 5824,
      "çļĦå·¨å¤§": 5825,
      "åĲĽ": 5826,
      "å®ı": 5827,
      "ä¹Łæĺ¯åĨįåº¦": 5828,
      "è½½": 5829,
      "å¸Ĳ": 5830,
      "éĥ½æĺ¯æľªæĽ¾": 5831,
      "è¸ŀ": 5832,
      "çº¤æīĭ": 5833,
      "æµĵæµĵçļĦ": 5834,
      "ç¬¬åħ«çĻ¾": 5835,
      "æ²Īäºĳ": 5836,
      "ä¹ı": 5837,
      "äºĨæĭ±æīĭ": 5838,
      "èĢĮåľ¨è¿Ļ": 5839,
      "èĢĮéĢĢ": 5840,
      "åħīéĺµ": 5841,
      "è¯´å¾Ĺ": 5842,
      "éŃĶå°¸": 5843,
      "èĲ½åľ°": 5844,
      "éĵ¸": 5845,
      "çİĦå¤©æ®¿": 5846,
      "æĢĴçģ«": 5847,
      "åģļä»Ģä¹Ī": 5848,
      "ä»»ä½ķäºº": 5849,
      "çļĦé»ĳæļĹ": 5850,
      "åĥıæĺ¯": 5851,
      "çľ¼çŀ³ä¹ĭä¸Ń": 5852,
      "æĿĥæĿĸ": 5853,
      "æįŁå¤±": 5854,
      "åħħæ»¡çĿĢ": 5855,
      "å¾½ç«ł": 5856,
      "çļĦæĢ§åŃĲ": 5857,
      "çļĦåı¤": 5858,
      "åĬ¨äºĨ": 5859,
      "èĢĮèĩ³": 5860,
      "ç»µ": 5861,
      "è®¾": 5862,
      "åľ°ä¸Ĭ": 5863,
      "æ³Ĭ": 5864,
      "éĽı": 5865,
      "è¡Ģèħ¥": 5866,
      "è®©ä»ĸä»¬": 5867,
      "æĹĭåį³ä¸Ģéģĵ": 5868,
      "æİ¥åıĹ": 5869,
      "åĽŀåĪ°": 5870,
      "ç®ĹäºĨ": 5871,
      "èĭ¥æĺ¯ä¸į": 5872,
      "é¼ł": 5873,
      "åįĩèµ·": 5874,
      "ä¿¡æģ¯": 5875,
      "çļĦæ²ī": 5876,
      "çļĦçĬ¶æĢģ": 5877,
      "īçĴĥ": 5878,
      "çļĦå¼ºå¤§": 5879,
      "è¿Ī": 5880,
      "çĭĦ": 5881,
      "åĺİ": 5882,
      "çĶŁçī©": 5883,
      "åĲįé¢Ŀ": 5884,
      "çĽ´åĪ°": 5885,
      "é£İäºĳ": 5886,
      "çĻ¾ä¸Ī": 5887,
      "æįİ": 5888,
      "æĢ§åŃĲ": 5889,
      "æĹ¢çĦ¶ä½ł": 5890,
      "è¿ŁæĹ©": 5891,
      "ä¾µåħ¥": 5892,
      "å¤§å¤ļéĥ½æĺ¯": 5893,
      "ç¬¬åĽĽçĻ¾": 5894,
      "è¡Ĺéģĵ": 5895,
      "éĢłå½¢å¢ĥ": 5896,
      "çļĦéŃĶåħ½": 5897,
      "èĲ§çĤİä½ĵåĨħ": 5898,
      "å¯Į": 5899,
      "èº«è¾¹": 5900,
      "ä¾¿åı¯": 5901,
      "å£«": 5902,
      "ä¾¿æĺ¯å¯¹çĿĢ": 5903,
      "çģ«æµ·": 5904,
      "ä¸İäºº": 5905,
      "çļĦçĨ": 5906,
      "æ¼¾": 5907,
      "ä¸Ģä¸ªä¸ª": 5908,
      "çĽĺè¸ŀ": 5909,
      "èĦ¸èī²ä¹Łæĺ¯": 5910,
      "èįĴèĬľ": 5911,
      "çĥŃéĹ¹": 5912,
      "ç¬¬äºĮæĽ´": 5913,
      "è½®åĽŀå¢ĥ": 5914,
      "æıĴæīĭ": 5915,
      "æĥĬå¤©åĬ¨åľ°": 5916,
      "æ·¬ä½ĵ": 5917,
      "å²Ĥä¸įæĺ¯": 5918,
      "äºĨæĳĬæīĭ": 5919,
      "çļĦæĪĺ": 5920,
      "åıĶ": 5921,
      "çĽĨ": 5922,
      "èĲ§çĤİæīĭæİĮ": 5923,
      "æīĭæĮģ": 5924,
      "éĢ¸": 5925,
      "çĽ®åħīæľĽåĲĳ": 5926,
      "åĨ·æ°Ķ": 5927,
      "æīĵåĩ»": 5928,
      "ä¹Łä¸įçĶ¨": 5929,
      "ä¸Ģå£°åĨ·ç¬ĳ": 5930,
      "æī¾åĪ°": 5931,
      "ä¸įçŁ¥ä¸ºä½ķ": 5932,
      "æĩĤ": 5933,
      "çľ¸åŃĲä¸Ń": 5934,
      "ç¢°æĴŀ": 5935,
      "åĴ§åĺ´ä¸Ģç¬ĳ": 5936,
      "Ġèį¯èĢģ": 5937,
      "Ġä¸ĢæĹģçļĦ": 5938,
      "éĤ£åľ¨": 5939,
      "ç§įåŃĲ": 5940,
      "æı´": 5941,
      "ç®Ĺå¾Ĺä¸Ĭ": 5942,
      "åİīåĸĿ": 5943,
      "ç¦ģ": 5944,
      "èĢĮä¸Ķè¿ĺ": 5945,
      "è±ª": 5946,
      "ç´«çģ«": 5947,
      "ä¹ĭåĨħçļĦ": 5948,
      "åı¹éģĵ": 5949,
      "æĢĢçĸĳ": 5950,
      "çļĦæļĹ": 5951,
      "è½»åı¹äºĨä¸Ģå£°": 5952,
      "èı©æıĲåĮĸ": 5953,
      "æ²¿éĢĶ": 5954,
      "ç¥ŃåĿĽ": 5955,
      "çļĦçĿģ": 5956,
      "ãĢĤ(": 5957,
      "éĤ£ä»İ": 5958,
      "æŀĿ": 5959,
      "èĲ§çĤİè¿Ļæīį": 5960,
      "æĪĳå°±": 5961,
      "å°ıæīĭ": 5962,
      "èĲ½åĪ°": 5963,
      "èĻĲ": 5964,
      "æĶ¶èİ·": 5965,
      "å°±åľ¨ä»ĸ": 5966,
      "ç©¿éĢı": 5967,
      "æ»ļæ»ļ": 5968,
      "é¢¤æĬĸèµ·æĿ¥": 5969,
      "å¿ĺè®°": 5970,
      "Ġä»İ": 5971,
      "ĠæīĭæİĮ": 5972,
      "çļĦçľĭçĿĢ": 5973,
      "å°Ŀ": 5974,
      "åĬ¨å®¹": 5975,
      "èº«å¤Ħ": 5976,
      "æĭ¬": 5977,
      "éŃģ": 5978,
      "çĥ¤": 5979,
      "ç»Ļä»ĸ": 5980,
      "çľ¼ä¸ŃæľīçĿĢ": 5981,
      "åıįæŃ£": 5982,
      "éŁ©å®¶": 5983,
      "åĲĦæĸ¹": 5984,
      "æħķéª¨èĢģäºº": 5985,
      "ç¾¤äºº": 5986,
      "å¼Ģåı£éģĵ": 5987,
      "æĦ¿æĦı": 5988,
      "Ġä¸ĢæĹģ": 5989,
      "èĢĮåĿĲ": 5990,
      "åĬĽéģĵ": 5991,
      "å¤ļè¯´ä»Ģä¹Ī": 5992,
      "ç¾½": 5993,
      "æĥ³åĪ°æŃ¤å¤Ħ": 5994,
      "é¡¶å³°": 5995,
      "å·®çĤ¹": 5996,
      "åĴ¬çĿĢçīĻ": 5997,
      "çļĦçĪĨçĤ¸": 5998,
      "ç±³çī¹å°Ķå®¶æĹı": 5999,
      "äº§çĶŁ": 6000,
      "ĠæĦŁåıĹçĿĢ": 6001,
      "èĲ§çĤİä¾¿æĺ¯": 6002,
      "å¾ĹåĪ°äºĨ": 6003,
      "çĭ¡": 6004,
      "èĦ¸ä¸Ĭ": 6005,
      "è¿Ļç§įäºĭ": 6006,
      "åĨ·åĸĿ": 6007,
      "åĽĽéĿ¢": 6008,
      "äº¤ç»ĻæĪĳ": 6009,
      "æ±¹": 6010,
      "ĠèĢĮåľ¨éĤ£": 6011,
      "æµ®çİ°èĢĮåĩº": 6012,
      "çļĦæİ§": 6013,
      "ç½ĹéĢļ": 6014,
      "å¹¿åľºä¹ĭä¸Ĭ": 6015,
      "éĿłè¿ĳ": 6016,
      "çļĦéĩĳ": 6017,
      "è¿ĻçĤ¹": 6018,
      "è¿ĻèĢģå®¶ä¼Ļ": 6019,
      "èĭ±": 6020,
      "æ²¡åĬŀæ³ķ": 6021,
      "ä¸įè¿ĩä»ĸ": 6022,
      "åı¤ç¢ĳ": 6023,
      "ĠæŀĹåĬ¨çĽ®åħī": 6024,
      "çĽ´æİ¥è¢«": 6025,
      "çļĦåľ°ä½į": 6026,
      "çĶļèĩ³æĺ¯": 6027,
      "èĹ¤": 6028,
      "æĬ¤åį«": 6029,
      "èį¡æ¼¾": 6030,
      "èĴĭ": 6031,
      "è½»æĺĵçļĦ": 6032,
      "çļĦæĪĲ": 6033,
      "ä¸ĢåĩĿ": 6034,
      "ä¸ĢåĪĨ": 6035,
      "ä¸Ģè¸ı": 6036,
      "ä½©": 6037,
      "å¿ĥæĻ´": 6038,
      "å·¨é¾Ļ": 6039,
      "è¿ĻèĪ¬æ¨¡æł·": 6040,
      "åħ¶ä¸ŃçļĦ": 6041,
      "æķ´åº§": 6042,
      "æīĢæľīäººçļĦ": 6043,
      "æµģåħī": 6044,
      "æĲı": 6045,
      "ç¤º": 6046,
      "æ®ĭçķĻ": 6047,
      "èĶĵå»¶èĢĮåĩº": 6048,
      "è®¶å¼Ĥ": 6049,
      "çļĦåıĺåĮĸ": 6050,
      "çļĦçľĭäºĨ": 6051,
      "è¿ĻåĴĮ": 6052,
      "è½»åĲĲäºĨä¸Ģåı£æ°Ķ": 6053,
      "éĽ·å®¶": 6054,
      "çŁ¥æĻĵ": 6055,
      "æĦıæĢĿ": 6056,
      "åħĪæĺ¯": 6057,
      "éļıä¾¿": 6058,
      "å¤ªèĻļ": 6059,
      "è½°åĩ»": 6060,
      "æŁ³ç¿İ": 6061,
      "èį¡èį¡": 6062,
      "å¥Īä½ķ": 6063,
      "ä¸ĭæĸ¹çļĦ": 6064,
      "æĺŁæĸĹå®Ĺ": 6065,
      "åĶĩè§Ĵ": 6066,
      "éĻ·åħ¥äºĨ": 6067,
      "ä¸Ģåħ·": 6068,
      "è¿Ļä¸¤ä¸ª": 6069,
      "èĲ±": 6070,
      "è¯¢": 6071,
      "å¤§æ¶¨": 6072,
      "å¦®": 6073,
      "ä¸ĭå·´": 6074,
      "ä½łäºĨ": 6075,
      "çĭĲ": 6076,
      "ç®Ĺåģļ": 6077,
      "éľĩéĢĢ": 6078,
      "åħĪåīįçļĦ": 6079,
      "ç¬¬ä¸ĢçĻ¾": 6080,
      "ç»ĵå±Ģ": 6081,
      "èĦ¸åºŀä¸Ĭä¹Łæĺ¯": 6082,
      "æ¶Īå¤±åľ¨": 6083,
      "æŀģåħ¶çļĦ": 6084,
      "å¢¨å®¶": 6085,
      "è¤Ĳ": 6086,
      "äºĨè¿Ľåİ»": 6087,
      "ä¹Łå¾Ĺ": 6088,
      "æĪĳä¾¿": 6089,
      "æĪĳçŁ¥éģĵ": 6090,
      "è¾±": 6091,
      "éķ¿éķ¿çļĦ": 6092,
      "çģµæĻº": 6093,
      "éĿĴè¡£": 6094,
      "éŃĶæł¸": 6095,
      "è¿ľåİ»": 6096,
      "æĺİå¤©": 6097,
      "éª¨ç¿¼": 6098,
      "é¡¶å¤ļ": 6099,
      "åģľä¸ĭ": 6100,
      "çļĦæ°ĶåĬ¿": 6101,
      "èĢĢçľ¼": 6102,
      "å¤§èįĴèĬľç»ı": 6103,
      "çĶ³å±łç»Ŀ": 6104,
      "ĠĠĊ": 6105,
      "ä¸Ńçº§": 6106,
      "ç»ľ": 6107,
      "åľ°åºķ": 6108,
      "å¼ºæ¦ľ": 6109,
      "çĻ½çľ¼": 6110,
      "åĲĳæŀĹåĬ¨": 6111,
      "æ¶ĮèĢĮåĩº": 6112,
      "ç¾ŀ": 6113,
      "çļĦéĤ£éģĵ": 6114,
      "è¿Ľåħ¥äºĨ": 6115,
      "å®īåħ¨": 6116,
      "å¼Ģå§ĭäºĨ": 6117,
      "åĿĲä¸ĭ": 6118,
      "æ½ĩ": 6119,
      "é³ŀçīĩ": 6120,
      "å·ħå³°å¼ºèĢħ": 6121,
      "çħŀä¹ĭæ°Ķ": 6122,
      "çļĦæĴŀåĩ»": 6123,
      "å¤ªèĻļåı¤é¾Ļ": 6124,
      "æľīåħ³": 6125,
      "ä»ĸèĩªçĦ¶æĺ¯": 6126,
      "åĽŀåĲĪ": 6127,
      "å°Ĩä¼ļæĺ¯": 6128,
      "éĤªåĲĽ": 6129,
      "æľīäºĽä¸įå¤ª": 6130,
      "èĢ¸èĤ©": 6131,
      "æ¸ĹéĢıèĢĮåĩº": 6132,
      "å§¿æĢģ": 6133,
      "åĶ¾æ²«": 6134,
      "çļĦæīĭæ®µ": 6135,
      "ä½łè¦ģ": 6136,
      "ä»ĸä»¬ä¹Łæĺ¯": 6137,
      "åĴ¦": 6138,
      "åĩłåĲį": 6139,
      "å¦ĸåŁŁ": 6140,
      "ä¸»æĦı": 6141,
      "è½°è½°": 6142,
      "åħ³æ³¨": 6143,
      "èĨľ": 6144,
      "é»ĺé»ĺ": 6145,
      "æĻĭçī§": 6146,
      "åıĤèµĽ": 6147,
      "æķ¬çķı": 6148,
      "èĻ«æ´ŀ": 6149,
      "çļĦå¼Ĥçģ«": 6150,
      "éĤ£å°ıåŃĲ": 6151,
      "çģ¿": 6152,
      "å¤©å°Ĭ": 6153,
      "å£°æľĽ": 6154,
      "éĢĬ": 6155,
      "è¯´å®Į": 6156,
      "ä½Ĩåľ¨": 6157,
      "çĬģ": 6158,
      "æļ´éľ²": 6159,
      "ç¬¬ä¸¤çĻ¾": 6160,
      "ĠæŀĹåĬ¨æľĽçĿĢ": 6161,
      "èħĲ": 6162,
      "åģļåĪ°": 6163,
      "è§Ħæ¨¡": 6164,
      "è½»åı¹äºĨä¸Ģåı£æ°Ķ": 6165,
      "æĭĴç»Ŀ": 6166,
      "çļĦå¦ĸåħ½": 6167,
      "çļĦèĥĮå½±": 6168,
      "æĺ¨": 6169,
      "åıī": 6170,
      "ä¸įçĿĢ": 6171,
      "è¿Ļå¤©": 6172,
      "çľĪ": 6173,
      "æľīä½ķ": 6174,
      "å¿ĥæĢĿ": 6175,
      "çģ«èŁĴ": 6176,
      "éĽ·å¸Ŀ": 6177,
      "èĦ¸åºŀä¹ĭä¸Ĭ": 6178,
      "å¿«æŃ¥": 6179,
      "ç¨ļ": 6180,
      "å¹¶ä¸įç®Ĺ": 6181,
      "æµģè½¬": 6182,
      "è®°å¿Ĩ": 6183,
      "æ¢¯": 6184,
      "æĥ¨çĻ½": 6185,
      "ä¹Łå°±æĺ¯è¯´": 6186,
      "å§ĳå¨ĺ": 6187,
      "ç¹ģ": 6188,
      "Ġçł°": 6189,
      "çļĦå¥³åŃĲ": 6190,
      "çļĦå¨ģåĬĽ": 6191,
      "äºĨæĴĩåĺ´": 6192,
      "æľīèµĦæł¼": 6193,
      "æ°Ķå¢ĥ": 6194,
      "åħ¶èº«ä½ĵ": 6195,
      "èĢģç¥ĸ": 6196,
      "çģµç¬¦": 6197,
      "æİłæĿ¥": 6198,
      "åıĳèĢģèĢħ": 6199,
      "è¡Įèµ°": 6200,
      "åĨ²åĩº": 6201,
      "èº«å½¢ä¸ĢéĹª": 6202,
      "ä¸ĩä¸Ī": 6203,
      "åĩĿèģļèĢĮæĪĲ": 6204,
      "å¼ĤéŃĶçİĭ": 6205,
      "æī©æķ£å¼ĢæĿ¥": 6206,
      "èĳ¬": 6207,
      "åĪĨéĴŁåĲİ": 6208,
      "åı¯ä¸įæĺ¯ä»Ģä¹Ī": 6209,
      "éĩįè¦ģçļĦ": 6210,
      "å£®ç¡ķ": 6211,
      "æĦĪåıĳçļĦ": 6212,
      "çĦ¶å¤§çī©": 6213,
      "äºĨä½ł": 6214,
      "ä¸įæŃ»": 6215,
      "åĪ¤": 6216,
      "è¯¯": 6217,
      "éĥ½ä¸įä¼ļ": 6218,
      "åĮĨ": 6219,
      "çĶ¨æĿ¥": 6220,
      "è£Ĥçº¹": 6221,
      "æī«è§Ĩ": 6222,
      "éĢłæ°Ķå¢ĥ": 6223,
      "åĿĲäºİ": 6224,
      "**ï¼Į": 6225,
      "æĢ»ç®Ĺæĺ¯": 6226,
      "ä¸īåįĥéĽ·": 6227,
      "å§ľéĽª": 6228,
      "çļĦèĲ½": 6229,
      "ä¸įåłª": 6230,
      "è¿Ļå¹ħ": 6231,
      "ä¾¿æĺ¯åĨįåº¦": 6232,
      "åħ¶æīĭä¸Ń": 6233,
      "è¿ĺæĥ³": 6234,
      "çľŁå®ŀ": 6235,
      "åºŀçĦ¶å¤§çī©": 6236,
      "é¾ĻåĲŁ": 6237,
      "éĺ´éĺ³": 6238,
      "çİĦéĺ¶": 6239,
      "ç¬¦ç¥ĸ": 6240,
      "å¿ħçĦ¶æĺ¯": 6241,
      "è°ģèĥ½": 6242,
      "çĮĽçĦ¶éĹ´": 6243,
      "ç§»åĬ¨": 6244,
      "æĶ¯æĮģ": 6245,
      "é¸£ä¹ĭå£°": 6246,
      "åĽĽè±¡å®«": 6247,
      "åĺİåĲ±": 6248,
      "Ġè¿ĻäºĽ": 6249,
      "ä¸įä½İ": 6250,
      "ä¸įå±ĳ": 6251,
      "åľ¨éĿ¢åīį": 6252,
      "å¤§æ±ī": 6253,
      "ä½łåºĶè¯¥": 6254,
      "éļĻ": 6255,
      "èįĲ": 6256,
      "æĸĹèĢħ": 6257,
      "è¢«åħ¶": 6258,
      "å·¨æĮĩ": 6259,
      "çº¢æ¶¦": 6260,
      "ç¿ł": 6261,
      "éĿ¢èī²éĺ´æ²ī": 6262,
      "æįķ": 6263,
      "éŁ©æľĪ": 6264,
      "æ¸ħæ¥ļçļĦ": 6265,
      "æĶ¯æĴĳ": 6266,
      "éľ²åĩºä¸ĢæĬ¹": 6267,
      "æĭ±äºĨæĭ±æīĭ": 6268,
      "åįĬä¸ªå°ıæĹ¶": 6269,
      "èı©æıĲåĮĸä½ĵ": 6270,
      "èĴĭæµ©": 6271,
      "çļĦå£°åĵį": 6272,
      "ä¸Ģæł¹": 6273,
      "äºĨå¼ĢæĿ¥": 6274,
      "æŀĹå®ı": 6275,
      "ä¾¥": 6276,
      "ä½łå°±": 6277,
      "çº±": 6278,
      "åĿł": 6279,
      "å·¨å¤´": 6280,
      "çİĦéĺ´": 6281,
      "ä¹Łä¸įåı¯èĥ½": 6282,
      "éĢļè¿ĩ": 6283,
      "çķĻæĥħ": 6284,
      "æĹłæ³ķå½¢å®¹": 6285,
      "æ³¨è§Ĩ": 6286,
      "éħĴ": 6287,
      "çľ¼åīįçļĦ": 6288,
      "ç´łæĿ¥": 6289,
      "å¤©åħĥå¢ĥ": 6290,
      "çļĦèĦ¸é¢Ĭ": 6291,
      "ä¸ĢæĭĽ": 6292,
      "åĲ©": 6293,
      "ä¹Łå¹¶éĿŀæĺ¯": 6294,
      "ç»½": 6295,
      "çİ°åľ¨çļĦå®ŀåĬĽ": 6296,
      "åĢĴçļĦç¡®æĺ¯": 6297,
      "äºĮåĵ¥": 6298,
      "éĤ£äºĽå®¶ä¼Ļ": 6299,
      "ç¦ı": 6300,
      "æĶ¾è¿ĩ": 6301,
      "åĽłæŃ¤èĢĮ": 6302,
      "æ¶ħæ§ĥ": 6303,
      "æİ¥è§¦åĪ°": 6304,
      "çĽĺåĿĲåľ¨": 6305,
      "æĲŀå¾Ĺ": 6306,
      "çĪĨè£ĤèĢĮå¼Ģ": 6307,
      "ç¥ĿçĬģ": 6308,
      "Â·": 6309,
      "åĲĵ": 6310,
      "éĤ£åİŁæľ¬": 6311,
      "å¤´çļ®": 6312,
      "å¿ĥæĥĬ": 6313,
      "éĽ·åįĥ": 6314,
      "ä»Ģä¹ĪæĹ¶åĢĻ": 6315,
      "è¸ıçĿĢ": 6316,
      "éļĲéļĲçļĦ": 6317,
      "çŁ³åı°ä¸Ĭ": 6318,
      "è¿ľåı¤ç§ĺéĴ¥": 6319,
      "çº¹ä¸Ŀä¸įåĬ¨": 6320,
      "èı©æıĲåĮĸä½ĵæ¶İ": 6321,
      "åĲ©åĴĲ": 6322,
      "çļĦçģ¯": 6323,
      "èĲ§çĤİèĥ½å¤Ł": 6324,
      "éĿ¡": 6325,
      "æĹ¶ä¸į": 6326,
      "ä¸ĭæīĭ": 6327,
      "å¤©çļĦ": 6328,
      "æĪĳè¿Ļ": 6329,
      "çĥ«": 6330,
      "åŁ¹": 6331,
      "çĦ¶åĲİåľ¨": 6332,
      "å£°éŁ³èĲ½ä¸ĭ": 6333,
      "å¤±åİ»": 6334,
      "åŁİä¸Ń": 6335,
      "èĭ¥ä¸įæĺ¯": 6336,
      "è¿ħçļĦ": 6337,
      "çľ¸ä¸Ń": 6338,
      "ç½Ĺå¸ĥ": 6339,
      "æĬ¹åİ»": 6340,
      "æİ¢æµĭ": 6341,
      "ç©ĨèĽĩ": 6342,
      "åľ¨åĨħéĻ¢": 6343,
      "å¤§åıĺ": 6344,
      "å¤§éĥ¨åĪĨ": 6345,
      "å¼ºçĥĪ": 6346,
      "å¤ļä¹Ī": 6347,
      "é¡½": 6348,
      "å¯¹äºİæŀĹåĬ¨": 6349,
      "æ¯Ĵå®Ĺ": 6350,
      "ç±į": 6351,
      "ĠåĲ¬å¾ĹæŃ¤è¯Ŀ": 6352,
      "æĹłå¥ĪçļĦéģĵ": 6353,
      "é£ĺé£ĺ": 6354,
      "çļĦæĥħç»ª": 6355,
      "ç¡®å®ļ": 6356,
      "åħ¬ä¸»": 6357,
      "æĢ¨æ¯Ĵ": 6358,
      "Ġçł°çł°": 6359,
      "çľ¯çĿĢ": 6360,
      "æŃĩ": 6361,
      "èºº": 6362,
      "ä¸ĭä¸Ģéľİ": 6363,
      "ä¹Łæĺ¯ä¼ļ": 6364,
      "æ¯ħ": 6365,
      "ä¸īå¤´": 6366,
      "ä½Ĩå¦Ĥä»Ĭ": 6367,
      "å¥½è¿Ĳ": 6368,
      "æĻķ": 6369,
      "ç´§éļı": 6370,
      "å¯¹äºİè¿Ļç§į": 6371,
      "çĲīçĴĥ": 6372,
      "æĮ¥åĬ¨": 6373,
      "åīĳéĹ¨": 6374,
      "çļĦåħĥåĬĽæ³¢åĬ¨": 6375,
      "ç´§æı¡çĿĢ": 6376,
      "å®ŀåľ¨æĺ¯å¤ªè¿ĩ": 6377,
      "çļĦç´«çłĶ": 6378,
      "é©±éĢĲ": 6379,
      "çļĦæİ§åĪ¶": 6380,
      "äºķ": 6381,
      "ä¸Ģé¢Ĺ": 6382,
      "ä¹Łå¹¶æ²¡æľī": 6383,
      "çľĭèµ·æĿ¥": 6384,
      "æľĢå¼º": 6385,
      "ä¸¤å®¶": 6386,
      "æ®·": 6387,
      "çİĦçģµ": 6388,
      "æĪĳä»¬çļĦ": 6389,
      "é«ĺæ¸©": 6390,
      "ĠåĲ¬å¾ĹèĲ§çĤİ": 6391,
      "çļĦæĬ¤": 6392,
      "å¤©å¦ĸåĤĢ": 6393,
      "æĭ¿åĩº": 6394,
      "æĳ¸äºĨæĳ¸": 6395,
      "é¥¶": 6396,
      "å½»å½»åºķåºķçļĦ": 6397,
      "çļĦæ®ĭ": 6398,
      "ç²ĺç¨ł": 6399,
      "åĲİæĤĶ": 6400,
      "æŀĹåĬ¨åħĦ": 6401,
      "èĦĸåŃĲ": 6402,
      "èĢģå¤´": 6403,
      "åį´ä¾ĿçĦ¶æĺ¯": 6404,
      "å°±åľ¨éĤ£": 6405,
      "çŃĳ": 6406,
      "æİĮæķĻ": 6407,
      "åĲįå¤´": 6408,
      "ĠèĢĮåľ¨æŀĹåĬ¨": 6409,
      "ç»Ĩå°ıçļĦ": 6410,
      "çĽ´æİ¥æĺ¯è¢«": 6411,
      "åĸ·å°ĦèĢĮåĩº": 6412,
      "éĢ¼å¾Ĺ": 6413,
      "Ġé»ĳ": 6414,
      "ä¸Ľ": 6415,
      "çļĦå¤©åľ°": 6416,
      "äºĨæķ°": 6417,
      "æ²Ł": 6418,
      "å¾®éĹŃ": 6419,
      "åį´æĺ¯åľ¨": 6420,
      "ç¥ŀå¥ĩ": 6421,
      "åĨ²å¤©": 6422,
      "ä¿®çĤ¼çļĦ": 6423,
      "ç§ĺæ³ķ": 6424,
      "æľºç¼ĺ": 6425,
      "æĬ¹éĻ¤": 6426,
      "èĴ²": 6427,
      "ä¸Ńå¹´çĶ·åŃĲ": 6428,
      "åľ°éŃĶèĢģé¬¼": 6429,
      "å¤©åºľèģĶçĽŁ": 6430,
      "çļĦçİ°": 6431,
      "çļĦå¼ºæ¨ª": 6432,
      "çļĦåĸĿå£°": 6433,
      "ä»ĸè¿ĺ": 6434,
      "æŀĹéľŀ": 6435,
      "ä¹Łæĺ¯å¾®å¾®": 6436,
      "æĹłè¡¨æĥħ": 6437,
      "æĹĭåį³ä¾¿æĺ¯": 6438,
      "åľºåľ°": 6439,
      "åĽŀäºĭ": 6440,
      "éļıä¹ĭ": 6441,
      "ä¼łèį¡": 6442,
      "å°½éĩı": 6443,
      "éĿ¢èī²é¡¿æĹ¶": 6444,
      "äº¤ç»ĩ": 6445,
      "åľ£åħī": 6446,
      "èĳ£": 6447,
      "çļĦç¦»": 6448,
      "å¦®åŃĲ": 6449,
      "~~": 6450,
      "äºĨèĪĶ": 6451,
      "åľ¨åľ°éĿ¢ä¸Ĭ": 6452,
      "ä»ĸçĽ®åħī": 6453,
      "å¤©å°¸": 6454,
      "å¥ĳ": 6455,
      "å¯¹è¿Ļ": 6456,
      "å°ĨæŀĹåĬ¨": 6457,
      "æ³°": 6458,
      "åĨħå¿ĥ": 6459,
      "åį´æĺ¯è§ģåĪ°": 6460,
      "ç¥ŀæĥħ": 6461,
      "ä¸įè¿ĩéĤ£": 6462,
      "åıĺæĪĲäºĨ": 6463,
      "è¿ľéĿŀ": 6464,
      "åºĶä»ĺ": 6465,
      "æŃ»äºĨ": 6466,
      "çŁ³æŁ±": 6467,
      "èģĬ": 6468,
      "çĸĹä¼¤": 6469,
      "ä½ıäºĨ": 6470,
      "ä¸Ŀä¸Ŀ": 6471,
      "æĪĳä»¬ä¹Ł": 6472,
      "ä¸ĥåĵģ": 6473,
      "èĭ¦æ¶©": 6474,
      "åĪĢèĬĴ": 6475,
      "æ´»çĿĢ": 6476,
      "çļĦæ³¨è§Ĩ": 6477,
      "çľĭå¾ĹåĩºæĿ¥": 6478,
      "å¤§å¤ļæķ°": 6479,
      "æģįçĦ¶": 6480,
      "èĲİéĿ¡": 6481,
      "éĤĻ": 6482,
      "åľ¨åįĬç©ºä¸Ń": 6483,
      "çĿĢä»Ģä¹Ī": 6484,
      "ä¾į": 6485,
      "åºĨ": 6486,
      "å¯¹èĲ§çĤİ": 6487,
      "è¡ħ": 6488,
      "éĥ½æĹłæ³ķ": 6489,
      "å°ıå°ı": 6490,
      "çºª": 6491,
      "å°±åľ¨åħ¶": 6492,
      "è¯´åĪ°": 6493,
      "å¥½çļĦ": 6494,
      "æĦŁåħ´è¶£": 6495,
      "èµ·æĿ¥çļĦ": 6496,
      "åĩ»ä¸Ń": 6497,
      "çľ¼ä¸ŃçļĦ": 6498,
      "çļĦä¸Ģåº§": 6499,
      "åį°è®°": 6500,
      "èģĶåĨĽ": 6501,
      "ä»»ä½ķçļĦ": 6502,
      "çļĦæµĵ": 6503,
      "éĽ·éľĨä¹ĭåĬĽ": 6504,
      "æ¦»": 6505,
      "ä»¤äººå¿ĥ": 6506,
      "è¿ĻåĢĴæĺ¯": 6507,
      "éĤ£ä¹Ł": 6508,
      "åĩ¹": 6509,
      "å¾Ĵ": 6510,
      "å®°": 6511,
      "ä¹Łæ²¡æľī": 6512,
      "åĲİèĥĮ": 6513,
      "åºĵ": 6514,
      "å¤§åįĬ": 6515,
      "æİº": 6516,
      "å¯¹äºĨ": 6517,
      "éĥ½æľªæĽ¾": 6518,
      "åıªæľīçĿĢ": 6519,
      "è¾ŀ": 6520,
      "åĩłæ¬¡": 6521,
      "èº«å½¢ä¾¿æĺ¯": 6522,
      "ç¾İä¸½": 6523,
      "åĬ²åĬĽ": 6524,
      "èĥľè´Ł": 6525,
      "çħ§èĢĢ": 6526,
      "å´©å¡Į": 6527,
      "èĪĶäºĨèĪĶ": 6528,
      "çľģæ²¹": 6529,
      "åľ¨ä½ł": 6530,
      "ä¹Łæĺ¯å¿įä¸įä½ıçļĦ": 6531,
      "æĪĳæĺ¯": 6532,
      "ä»¥æĿ¥": 6533,
      "æ³¡": 6534,
      "åį´å¹¶ä¸į": 6535,
      "ä¸īäººçļĦ": 6536,
      "åħĥçŁ³": 6537,
      "éĶ®": 6538,
      "æĺİäº®": 6539,
      "æŃ¦ä¼ļ": 6540,
      "è¯¥æŃ»çļĦ": 6541,
      "ç¥ĸçŁ³": 6542,
      "åħ³éĶ®": 6543,
      "åĲŀåĻ¬å¤©å°¸": 6544,
      "æĦ£äºĨ": 6545,
      "ç©¿è¿ĩ": 6546,
      "èĿł": 6547,
      "éŃĶåħ½å±±èĦī": 6548,
      "éĤ£éģĵèº«å½±": 6549,
      "å®ŀåľ¨æĺ¯æľīäºĽ": 6550,
      "éĹªçİ°åĩºæĿ¥": 6551,
      "çªĥçªĥç§ģè¯Ń": 6552,
      "èī°éļ¾": 6553,
      "Ġè¡Ģ": 6554,
      "ä¸Ģè·º": 6555,
      "äºĨæĪĳ": 6556,
      "éĤ£å¤©": 6557,
      "æĹ¶æľŁ": 6558,
      "æīĭæīĵ": 6559,
      "åħīçº¹": 6560,
      "ä½łæľī": 6561,
      "å°ĨéĤ£äºĽ": 6562,
      "éĿ¢æĹłè¡¨æĥħ": 6563,
      "æĭĤ": 6564,
      "åŁĭ": 6565,
      "ä½ĵåĨħåħĥåĬĽ": 6566,
      "äºĮèĢģ": 6567,
      "æĬµæĮ¡": 6568,
      "ä¸įå°ĳäººéĥ½æĺ¯": 6569,
      "éħįåĲĪ": 6570,
      "çľīå¿ĥå¤Ħ": 6571,
      "ä¾¥å¹¸": 6572,
      "è¿Ļåı¯æĺ¯": 6573,
      "ä¹ĭåºķ": 6574,
      "ä¹ŁçŁ¥éģĵ": 6575,
      "æŀĹåĬ¨çľ¼ç¥ŀ": 6576,
      "å¯¹ä»ĸä»¬": 6577,
      "åľ°éĺ¶": 6578,
      "åīįåįģ": 6579,
      "çļĦçķ": 6580,
      "èĥ½å¤Łä¸İ": 6581,
      "ä¸įè¿ĩåľ¨": 6582,
      "æĽ°": 6583,
      "çł´è§£": 6584,
      "æľĪåªļ": 6585,
      "åĳ½ä»¤": 6586,
      "ç¼©å°ı": 6587,
      "éĺ³åħĥçŁ³": 6588,
      "é¹ľæĬ¤æ³ķ": 6589,
      "èĶ½": 6590,
      "ä¸įç®¡å¦Ĥä½ķ": 6591,
      "å§Ĳå§Ĳ": 6592,
      "èĳ±": 6593,
      "éļĲèĹıåľ¨": 6594,
      "åĬłåĪĹæ¯ķ": 6595,
      "æ°¸è¿ľ": 6596,
      "çļĦæ¼Ĩé»ĳ": 6597,
      "åºĬæ¦»": 6598,
      "çķľçĶŁ": 6599,
      "çļĦåĬ²é£İ": 6600,
      "äºĨç¿»": 6601,
      "ä¸ĭé£İ": 6602,
      "åħīåįİ": 6603,
      "ä½Ĩèĭ¥æĺ¯": 6604,
      "åĲ¬è¯´": 6605,
      "ä½İåĸĿ": 6606,
      "è¿Ļä¸ªåĲįåŃĹ": 6607,
      "éª¨çģµ": 6608,
      "ĠèĲ§çĤİçĽ®åħī": 6609,
      "è§ĴèĲ½": 6610,
      "åıįå°Ħ": 6611,
      "åħ«æĸ¹": 6612,
      "ä¸ĩä¸Ģ": 6613,
      "ä»»åĬ¡": 6614,
      "çĤ¸åĵį": 6615,
      "åĨ·ç¬ĳä¸Ģå£°": 6616,
      "èĭ¥éĿŀæĺ¯": 6617,
      "åĬłåĪĹå®¶æĹı": 6618,
      "åĸīåĴĻéĹ´": 6619,
      "ç¬ĶçĽ´": 6620,
      "æ¥¼éĺģ": 6621,
      "çļĦç¢§ç»¿": 6622,
      "éŀŃ": 6623,
      "ĠåĽłæŃ¤": 6624,
      "çļĦç©ºæ°Ķ": 6625,
      "åľ¨åįĬç©º": 6626,
      "åĪģ": 6627,
      "çļĦæ¿Ģ": 6628,
      "ç¼ļ": 6629,
      "å½ĵåģļ": 6630,
      "è´¦": 6631,
      "çĬ¯": 6632,
      "åĲĳèĲ§çĤİ": 6633,
      "åį°æ³ķ": 6634,
      "âĢĻï¼Į": 6635,
      "ä¸Ŀæ¯«çļĦ": 6636,
      "è¶ĬæĿ¥è¶Ĭå¤ļ": 6637,
      "æ¶¨çº¢": 6638,
      "ä¸įéĶĻçļĦ": 6639,
      "ç´§ç´§çļĦ": 6640,
      "ä¹Łå°±ä¸įåĨį": 6641,
      "æ·±åĲ¸ä¸Ģåı£æ°Ķ": 6642,
      "æĸĹåľ£å¼ºèĢħ": 6643,
      "å§ļçĽĽ": 6644,
      "ä¼¸åĩºæīĭæİĮ": 6645,
      "èĲ¥åľ°": 6646,
      "çĮľæµĭ": 6647,
      "ä¸ĺ": 6648,
      "èĲ§å®ģ": 6649,
      "è¯ŀ": 6650,
      "ä¾¿èĥ½": 6651,
      "è¿ĩäºİ": 6652,
      "åħīçĤ¹": 6653,
      "æľĽçĿĢèĲ§çĤİ": 6654,
      "å¹¶ä¸įä¼ļ": 6655,
      "åĨ·çģ«": 6656,
      "åĽŀçŃĶ": 6657,
      "å¦ĸåľ£": 6658,
      "åľ¨éĤ£ç§į": 6659,
      "å¿ĥä¸Ńåį´æĺ¯": 6660,
      "ä¿®å¤į": 6661,
      "æīĵæī°": 6662,
      "å¾Īæĥ³": 6663,
      "èĮµ": 6664,
      "å¸®ä½ł": 6665,
      "å¾®å¾®ä¸ĢæĢĶ": 6666,
      "è¿Ļæł·ä¸ĢæĿ¥": 6667,
      "éĿłçĿĢ": 6668,
      "èĩ´åĳ½": 6669,
      "åĨĽéĺŁ": 6670,
      "æĺİæĺ¾æĺ¯": 6671,
      "çļĦæı¡": 6672,
      "æĳĬäºĨæĳĬæīĭ": 6673,
      "é¡¶å°ĸå¼ºèĢħ": 6674,
      "ä¸įè§ī": 6675,
      "ä¹ĭçĬ¶": 6676,
      "æŀĹä¸Ń": 6677,
      "å¤©åķ¸": 6678,
      "çģ«çģµ": 6679,
      "æ³Ħ": 6680,
      "è¿ĺèĥ½å¤Ł": 6681,
      "éĥ½æĺ¯å¿įä¸įä½ıçļĦ": 6682,
      "å±±å£ģ": 6683,
      "èİ¹": 6684,
      "çĬ¬": 6685,
      "å¾Īå¼º": 6686,
      "æĸ¹æīįæĺ¯": 6687,
      "çļĦéĤ£ä½į": 6688,
      "éª¨æŀª": 6689,
      "ä¿®çĤ¼å®¤": 6690,
      "æĦŁåıĹçĿĢéĤ£": 6691,
      "çļĦæĮĩ": 6692,
      "åĩīæ°Ķ": 6693,
      "åĴ½äºĨä¸Ģåı£": 6694,
      "âĢĶâĢĶ": 6695,
      "æĢ»å½Ĵæĺ¯": 6696,
      "çļĦåºŀå¤§": 6697,
      "âĢĿâĢĻ": 6698,
      "èĲ§çĤİèĦ¸èī²": 6699,
      "ä¸Ĭé£İ": 6700,
      "æĹłåĬĽ": 6701,
      "è¶Ł": 6702,
      "çĥĻ": 6703,
      "æĥĬè¯§": 6704,
      "çŁ³è½©": 6705,
      "å¯¹äºİèĲ§çĤİ": 6706,
      "éª¨å¤´": 6707,
      "çĽ¸å½ĵä¹ĭ": 6708,
      "èĨĿ": 6709,
      "å¯Łè§īåĪ°äºĨ": 6710,
      "èĻļæĹłç©ºéĹ´": 6711,
      "éĤªéª¨èĢģäºº": 6712,
      "æĳ¸çĿĢ": 6713,
      "çĭ¬èĩª": 6714,
      "çļĦæĴķ": 6715,
      "æ¸¡è¿ĩ": 6716,
      "èĬĬèĬĬ": 6717,
      "Ġçªģå¦Ĥåħ¶æĿ¥çļĦ": 6718,
      "è¿Ļåĩł": 6719,
      "éĤ£åı¯æĺ¯": 6720,
      "çĽ¼": 6721,
      "æŀĹåĬ¨çĽ®åħī": 6722,
      "å¼ºä¸Ĭ": 6723,
      "è¦ģå¡ŀ": 6724,
      "åĨįæĿ¥": 6725,
      "éª·": 6726,
      "æľ¬çİĭ": 6727,
      "åįĥä¸Īåºŀå¤§çļĦ": 6728,
      "ç»ĿæľĽ": 6729,
      "éĵ¶åħī": 6730,
      "è°¢è°¢": 6731,
      "ä»·åĢ¼": 6732,
      "çļĦæĮ¥": 6733,
      "ç£¨éĵģ": 6734,
      "ç»ıåİĨäºĨ": 6735,
      "çļĦæĦŁåºĶ": 6736,
      "çļĦæħķ": 6737,
      "çļĦæĸĹæĬĢ": 6738,
      "çļĦåĴĨåĵ®": 6739,
      "åľ¨æĦı": 6740,
      "è¿ĩå¤Ħ": 6741,
      "ãĢĤâĢĿâĢľ": 6742,
      "åı¯å°±": 6743,
      "åį´æĺ¯è¢«": 6744,
      "ä½Ĩçİ°åľ¨": 6745,
      "çİĭæ°ıå®ĹæĹı": 6746,
      "ä¸Ģä¸ªä¸į": 6747,
      "ç©ºéĹ´è£Ĥç¼Ŀ": 6748,
      "è§£éĩĬ": 6749,
      "æĹ©ä¾¿æĺ¯": 6750,
      "æŁĶè½¯": 6751,
      "èĶĵå»¶å¼ĢæĿ¥": 6752,
      "çľ¼ä¸Ńä¹Łæĺ¯æİłè¿ĩä¸ĢæĬ¹": 6753,
      "å°ıå¿ĥç¿¼ç¿¼çļĦ": 6754,
      "ä»İçº³æĪĴä¸Ńåıĸåĩº": 6755,
      "åĽĽéĿ¢åħ«æĸ¹": 6756,
      "çľģæ²¹çļĦçģ¯": 6757,
      "çļĦå¼ºæĤį": 6758,
      "åľ¨åħĪåīį": 6759,
      "åĨĻ": 6760,
      "å¯¹ç¢°": 6761,
      "å°ıä¼Ĭ": 6762,
      "èĢģçĶŁ": 6763,
      "ä»¥ä»ĸçļĦ": 6764,
      "éĥ½æĺ¯åľ¨æŃ¤æĹ¶": 6765,
      "çĶŁåĳ½": 6766,
      "è´Ń": 6767,
      "æĽ´çĶļ": 6768,
      "åĶ®": 6769,
      "åºķèķ´": 6770,
      "ä¹Ŀåĩ¤": 6771,
      "èĭ¦ä¿®": 6772,
      "è¯ķåĽ¾": 6773,
      "å±±å³°ä¸Ĭ": 6774,
      "èº¯ä½ĵ": 6775,
      "é¸£å£°": 6776,
      "èĥ¡ä¹±": 6777,
      "è·¨åĩº": 6778,
      "æĺ¯ä¸Ģä¸ª": 6779,
      "ä¹ŁæŃ£": 6780,
      "åĩºåı£": 6781,
      "è®ª": 6782,
      "éªĦ": 6783,
      "æĥĬéĽ·": 6784,
      "æ²īçĿ¡": 6785,
      "çĲ´": 6786,
      "å¿ħè¦ģ": 6787,
      "èĦļè¸ı": 6788,
      "ä¿®çĤ¼çĬ¶æĢģ": 6789,
      "ä½ĽæĢĴ": 6790,
      "éļ¾ä»¥æİ©é¥°": 6791,
      "éĢıè¿ĩ": 6792,
      "åłµ": 6793,
      "æľīæīĢå¯Łè§ī": 6794,
      "çľĭåĲĳæŀĹåĬ¨": 6795,
      "é¹°å±±èĢģäºº": 6796,
      "éļĲèĹıçĿĢ": 6797,
      "åĪ°å¾ĹåĲİæĿ¥": 6798,
      "åĺĢåĴķ": 6799,
      "èĴ²åĽ¢": 6800,
      "ĠåĹ¤": 6801,
      "æľ´": 6802,
      "éĤ£æ¨¡æł·": 6803,
      "åĪ®": 6804,
      "å®¾": 6805,
      "çļĦæĲ": 6806,
      "çº¸": 6807,
      "ä»ĸä»¬åľ¨": 6808,
      "å¹´çºª": 6809,
      "äºĳå±Ĥ": 6810,
      "ç¿ħ": 6811,
      "ä¹Łä¸įåĨį": 6812,
      "åıªæĺ¯éĤ£": 6813,
      "éĻ¡çĦ¶éĹ´": 6814,
      "æŀĹåĬ¨çļĦèº«ä½ĵ": 6815,
      "èĥľåĪ©": 6816,
      "æĬ¢å¤º": 6817,
      "çļĦç¾İæĿľèİİ": 6818,
      "èĽ®æ¨ª": 6819,
      "çļĦæĭįåįĸ": 6820,
      "éª¨çģµåĨ·çģ«": 6821,
      "è¿Ļä¸¤äºº": 6822,
      "å¼ĵ": 6823,
      "èº«æĿĲ": 6824,
      "åĽŃ": 6825,
      "æĥ¯": 6826,
      "ä½Ĩçľ¼ä¸ĭ": 6827,
      "è¡ĢèĤī": 6828,
      "éŃĤå´ĸ": 6829,
      "æ¸ħæ¾": 6830,
      "åľ¨è¿ĻèĪ¬": 6831,
      "å¸¦æĿ¥": 6832,
      "æĸ¹æīįç¼ĵç¼ĵ": 6833,
      "æĢİä¹ĪåĽŀäºĭ": 6834,
      "éĵģæĬ¤æ³ķ": 6835,
      "æľįçĶ¨": 6836,
      "åįĩèħ¾èĢĮèµ·": 6837,
      "æĴĩäºĨæĴĩåĺ´": 6838,
      "æļ´å°ĦèĢĮåİ»": 6839,
      "çļ±çľīéģĵ": 6840,
      "é¬¼éŃħèĪ¬çļĦ": 6841,
      "å¤§èįĴèĬľç¢ĳ": 6842,
      "é»ĳæļĹä¹ĭæ®¿": 6843,
      "åľ£åħīçİĭæľĿ": 6844,
      "Ã¨": 6845,
      "çļĵ": 6846,
      "çļĦéĩĳåħī": 6847,
      "å¤§åĨĽ": 6848,
      "éĥ½å¾Ĺ": 6849,
      "æŃ¤è¡Į": 6850,
      "éĿ¢åºŀ": 6851,
      "ä¿¯": 6852,
      "åı¤åīĳéĹ¨": 6853,
      "èĲ½ä¸ĭæĿ¥": 6854,
      "æ·±åħ¥": 6855,
      "è¿ħçĮĽ": 6856,
      "åĩ¶åħ½": 6857,
      "æŁ³çĻ½": 6858,
      "çº¹è·¯": 6859,
      "é¸¾": 6860,
      "çļĦéĿĴèī²": 6861,
      "éħ·": 6862,
      "çľ¼çŀ³ä¸Ń": 6863,
      "åı¤èĢģçļĦ": 6864,
      "çŃīå¾ħçĿĢ": 6865,
      "çļĦåĲįå¤´": 6866,
      "========": 6867,
      "çļĦæıĲåįĩ": 6868,
      "Ġå¤©": 6869,
      "ĠéĤ£ç§į": 6870,
      "ä¸Ģæ²ī": 6871,
      "éĤ£çķª": 6872,
      "éĤ£ç¥ŀç§ĺ": 6873,
      "æŀĹåĬ¨åĵ¥": 6874,
      "éĢĨ": 6875,
      "æĸ¹åľĨ": 6876,
      "æľĢåīįæĸ¹": 6877,
      "çģµæ¶²": 6878,
      "åıĺæĢģ": 6879,
      "åĲĮæĹ¶éĹ´": 6880,
      "æİ¥è¿ŀ": 6881,
      "éĵł": 6882,
      "èĭ¥æĺ¯è¢«": 6883,
      "å¯¹äºİä»ĸä»¬": 6884,
      "éĢĢåĩº": 6885,
      "æļĹæļĹ": 6886,
      "åħ«å¤§": 6887,
      "æıĲèµ·": 6888,
      "æĪĸè®¸æĺ¯åĽłä¸º": 6889,
      "èĢ¸äºĨ": 6890,
      "åŀĤæ¶İ": 6891,
      "è¾ĵäºĨ": 6892,
      "æģ©æĢ¨": 6893,
      "èĦĳæµ·ä¹ĭä¸Ń": 6894,
      "èĤīçľ¼åı¯è§ģ": 6895,
      "æĦ£äºĨæĦ£": 6896,
      "éĤ£å·¨å¤§çļĦ": 6897,
      "åľ¨ä¸ĭ": 6898,
      "ä¹Łè¦ģ": 6899,
      "åĩºä¸Ģéģĵéģĵ": 6900,
      "èĲ§çĤİç¬ĳäºĨç¬ĳ": 6901,
      "èī¯": 6902,
      "éĥ½æ²¡æľī": 6903,
      "å°ıå°ıçļĦ": 6904,
      "æģĥ": 6905,
      "è¯´åĩº": 6906,
      "èĤ¢": 6907,
      "æĤ²": 6908,
      "éļ¾åº¦": 6909,
      "åħĪç¥ĸ": 6910,
      "æ¸ħåĨ·": 6911,
      "é¡¶çĤ¹": 6912,
      "åľ¨åħ¶åĳ¨èº«": 6913,
      "åģľæ»ŀ": 6914,
      "æłĳå¹²": 6915,
      "çļĦè¡ĢèĦī": 6916,
      "è´¹å¤©": 6917,
      "èį¯é¼İä¹ĭåĨħ": 6918,
      "çªģçł´åĪ°": 6919,
      "åįĬæĻĮä¹ĭåĲİ": 6920,
      "çĪĨçĤ¸èĢĮå¼Ģ": 6921,
      "åĸ§åĵĹ": 6922,
      "èĤĮèĤī": 6923,
      "çļĦè§ģåĪ°": 6924,
      "çļĦä¸¤äºº": 6925,
      "éĤ£äºº": 6926,
      "éĤ£é»ĳ": 6927,
      "ä»ĸè¿Ļ": 6928,
      "ä¹Łæľī": 6929,
      "ä¹Łå¹¶æľª": 6930,
      "æŀĹèĤ¯": 6931,
      "åī²": 6932,
      "ä½ĨæŀĹåĬ¨": 6933,
      "çłį": 6934,
      "å®ĹéĹ¨": 6935,
      "é«ħ": 6936,
      "æºħ": 6937,
      "åĩ¶çĮĽ": 6938,
      "æ°´æĻ¶": 6939,
      "è¿Ļä¹Īä¹ħ": 6940,
      "å¾®å¾®ä¸Ģçļ±": 6941,
      "æľīä¸Ŀæ¯«çļĦ": 6942,
      "éĵģæľ¨åºĦ": 6943,
      "è¿ľåı¤é¾ĻçĮ¿": 6944,
      "åĴ½äºĨä¸Ģåı£åĶ¾æ²«": 6945,
      "ä¸Ģä¸Ģ": 6946,
      "ä¸Ģå¤§": 6947,
      "ä½³": 6948,
      "éĤĢ": 6949,
      "ä¸įä¼ĳ": 6950,
      "æŀĦ": 6951,
      "å¦ĩ": 6952,
      "ä¾¿æĺ¯èĩª": 6953,
      "å¯¹æŀĹåĬ¨": 6954,
      "æľīçĿĢä¸įå°ıçļĦ": 6955,
      "åŃĲå¼Ł": 6956,
      "æĪĲäºĨä¸Ģ": 6957,
      "æľĽçĿĢè¿Ļ": 6958,
      "èĲ½åħ¥": 6959,
      "æ¯Ķèµ·æĿ¥": 6960,
      "çĻ¾å¹´": 6961,
      "åĪĨæķ£": 6962,
      "éĩĳåı°": 6963,
      "çīĩåĪ»ä¹ĭåĲİ": 6964,
      "é£ĺèį¡": 6965,
      "åİĨç»ĥ": 6966,
      "éĻįä¸´": 6967,
      "å¢¨æī¿": 6968,
      "èĮ¶æĿ¯": 6969,
      "çļĦä¸ī": 6970,
      "ä¸įå¦Ĥ": 6971,
      "è¿ĻæŀĹåĬ¨": 6972,
      "èĢĮåĽŀ": 6973,
      "ç«¥": 6974,
      "éĥ½ä¸įæĺ¯": 6975,
      "å°Ĩè¿ĻäºĽ": 6976,
      "é£Ļ": 6977,
      "åį´æĺ¯èĥ½å¤Ł": 6978,
      "ä½Ĩæ¯ķç«Ł": 6979,
      "ä»İèĢĮ": 6980,
      "æŀģéļ¾": 6981,
      "çŁ³éĹ¨": 6982,
      "åľ¨è¿Ļä¸ĢåĪ»": 6983,
      "çĭĤçĥŃ": 6984,
      "æ»¡åľº": 6985,
      "åıĹä¼¤": 6986,
      "ç´«é»ĳ": 6987,
      "åĪ¶éĢł": 6988,
      "è¿ĻéĩĮçļĦäºº": 6989,
      "å®īçĦ¶": 6990,
      "éĺ³åŁİ": 6991,
      "éħ¸": 6992,
      "çļĦæ³¨æĦı": 6993,
      "éĹ·åĵį": 6994,
      "ä¹Ŀå¤©å°Ĭ": 6995,
      "æ¹ĸæ³Ĭ": 6996,
      "çģ¾ä¹Ĳ": 6997,
      "ĠçļĦ": 6998,
      "Ġä»¥": 6999,
      "Ġä¸Ģéģĵ": 7000,
      "çĤ®": 7001,
      "è¢ħ": 7002,
      "çĤ¹çĤ¹": 7003,
      "æ²¡äºº": 7004,
      "ä¸¤èĤ¡": 7005,
      "åĨįè¯´": 7006,
      "åħĥåŃĲ": 7007,
      "å·¨æłĳ": 7008,
      "çŁ³åĿ¤": 7009,
      "ç¾İäºº": 7010,
      "åİĭåİĭ": 7011,
      "èĭ¦ç¬ĳçĿĢæĳĩäºĨæĳĩå¤´": 7012,
      "æĭ¥æľīäºĨ": 7013,
      "æĢ§åĳ½": 7014,
      "å»¶ä¼¸": 7015,
      "åĸĿå£°èĲ½ä¸ĭ": 7016,
      "æĭĸå»¶": 7017,
      "èĽĩäººæĹı": 7018,
      "æĺıè¿·": 7019,
      "ä½ĽæĢĴçģ«èİ²": 7020,
      "çģ¾ä¹Ĳç¥¸": 7021,
      "çļĦå¦ĸ": 7022,
      "éĤ£ä¸ľè¥¿": 7023,
      "å¦©": 7024,
      "ä¾¿å®ľ": 7025,
      "è¿ĩæĿ¥çļĦ": 7026,
      "ç§Ĵ": 7027,
      "åľ°éģĵ": 7028,
      "éĥ½ä¸įæķ¢": 7029,
      "äºĨä¸Ģåı¥": 7030,
      "ä½ĵç§¯": 7031,
      "è¡ĢéĽ¾": 7032,
      "è¡Ģæ½Ń": 7033,
      "ç¬¬ä¸Ģä¸ª": 7034,
      "ĠæŀĹåĬ¨å¾®å¾®çĤ¹å¤´": 7035,
      "æ¯ĶèµĽ": 7036,
      "å¦Ĥä»Ĭè¿Ļ": 7037,
      "å¸Ŀéĥ½": 7038,
      "èŀįåĮĸ": 7039,
      "æķ£åıĳèĢĮåĩº": 7040,
      "å¾Ĳå¾ĲçļĦ": 7041,
      "æĹłæķ°éģĵçĽ®åħīçļĦæ³¨è§Ĩä¸ĭ": 7042,
      "åįĬæŃ¥æ¶ħçĽĺ": 7043,
      "æĶ¹åıĺ": 7044,
      "éª¸éª¨": 7045,
      "éĢĬèī²": 7046,
      "çļĦè¡Į": 7047,
      "çļĦæŃ¦åŃ¦": 7048,
      "æĺ¯ä¸Ģç§į": 7049,
      "ä»ĸä½ĵåĨħ": 7050,
      "åĩºäºĳ": 7051,
      "èĲ§æĻ¨": 7052,
      "ä¸ĭæ¬¡": 7053,
      "å¥´": 7054,
      "çļĦçĲ": 7055,
      "æĪĲçĨŁ": 7056,
      "å¥¹éĤ£": 7057,
      "è·ŁäºĨä¸Ĭåİ»": 7058,
      "èĥĮæĻ¯": 7059,
      "èµ¶æĿ¥": 7060,
      "é³ŀåı¤æĪŁ": 7061,
      "ä¸įçĶ±å¾ĹæľīäºĽ": 7062,
      "è¢ĸä¸Ń": 7063,
      "è·³åĬ¨": 7064,
      "å¹¸çģ¾ä¹Ĳç¥¸": 7065,
      "åĥµæĮģ": 7066,
      "æİĢèµ·": 7067,
      "è´Ŀé½¿": 7068,
      "çļĦç¨ĭ": 7069,
      "çļĦå¹´è½»": 7070,
      "æĺ¯è°ģ": 7071,
      "äºĨä»ĸä»¬": 7072,
      "è¿Ļäºº": 7073,
      "å°ıåħĦå¼Ł": 7074,
      "äºĨä¸ĢæĬĬ": 7075,
      "ï¼ŁâĢľ": 7076,
      "éŃĤçİī": 7077,
      "æĽ´å¼º": 7078,
      "æķ£çĿĢ": 7079,
      "å¦Ĥä»ĬçļĦå®ŀåĬĽ": 7080,
      "æĿĢæīĭ": 7081,
      "è¢įèĢģèĢħ": 7082,
      "çľīå¤´ç´§çļ±": 7083,
      "éĵ¶èĬĴ": 7084,
      "çĤ¼èį¯å¸Īåħ¬ä¼ļ": 7085,
      "çļĦæĬµ": 7086,
      "æĪĲåĬŁäºĨ": 7087,
      "åħĥéĹ¨å¼ŁåŃĲ": 7088,
      "æĬ¬å¤´æľĽçĿĢ": 7089,
      "ç»Ŀå¯¹ä¸įä¼ļ": 7090,
      "ä¸Ģæĭ³è½°åĩº": 7091,
      "çļĦæ´ª": 7092,
      "äº«åıĹ": 7093,
      "Ġé»ĳèī²": 7094,
      "Ġèĸ°åĦ¿": 7095,
      "çļĦåķĬ": 7096,
      "çļĦåĲĮæĹ¶": 7097,
      "çļĦåĲįåŃĹ": 7098,
      "ä¹ĺ": 7099,
      "å¿ĥæĥħ": 7100,
      "åı¯åĦ¿": 7101,
      "å¤ļå¤§çļĦ": 7102,
      "éĥ½æĺ¯è¦ģ": 7103,
      "å±±å²³": 7104,
      "äº¤è°Ī": 7105,
      "çģµéŃĤæĦŁçŁ¥": 7106,
      "æ¯ķç«Łæĺ¯": 7107,
      "åģľé¡¿": 7108,
      "éĽ·éľĨä¹ĭå¿ĥ": 7109,
      "è¾°åĤĢ": 7110,
      "çĪªåŃĲ": 7111,
      "åħ·å¤ĩçĿĢ": 7112,
      "åĽŀèį¡çĿĢ": 7113,
      "ç«ŀäºī": 7114,
      "æ²¾æŁĵ": 7115,
      "å¸Ĳç¯·": 7116,
      "èĢ¸äºĨèĢ¸èĤ©": 7117,
      "å¦©åªļ": 7118,
      "łæħ¢": 7119,
      "çļĦå¤©ç©º": 7120,
      "çļĦèĥ½åĬĽ": 7121,
      "ä¸Ģå¯Ĵ": 7122,
      "ä¸ŃçļĦéĤ£": 7123,
      "ç»´": 7124,
      "æīĭä¸ĭ": 7125,
      "ç¬ĳäºĨä¸Ģå£°": 7126,
      "çľ¼çļ®": 7127,
      "åı¯åĲ¦": 7128,
      "æľĢé«ĺ": 7129,
      "éķ°": 7130,
      "ä¸įè¿ĩåį´": 7131,
      "éĽ·åĬĽ": 7132,
      "æ¼Ĩ": 7133,
      "ç´§ç¼©": 7134,
      "åĽĽéģĵ": 7135,
      "æĸ¹æīįä¼ļ": 7136,
      "çİīçĽĴ": 7137,
      "æį·": 7138,
      "åı¹äºĨä¸Ģå£°": 7139,
      "æĲĵ": 7140,
      "é¢ĩæľīäºĽ": 7141,
      "çŁŃæļĤ": 7142,
      "æĬĬä½ł": 7143,
      "åı¯æĢķçļĦåĬĽéĩı": 7144,
      "æ¶Īå¤±ä¸įè§ģ": 7145,
      "æĩĴå¾Ĺ": 7146,
      "ä¿Ĭç¾İ": 7147,
      "çļĦç¿»": 7148,
      "å±ıéļľ": 7149,
      "æĺ¯ä½ķçŃī": 7150,
      "äºĨå¼Ģåİ»": 7151,
      "åľ¨åĬłçİĽå¸ĿåĽ½": 7152,
      "å¾ģ": 7153,
      "åĲİæľŁ": 7154,
      "äºĨä¸ĢèĪ¬": 7155,
      "èĦ¸çļ®": 7156,
      "ä½įéĿ¢": 7157,
      "çİĭéĴŁ": 7158,
      "å·¨èŁĴ": 7159,
      "åĪĨå®¶": 7160,
      "é«ĵ": 7161,
      "æĥħæĬ¥": 7162,
      "æĢªå¼Ĥ": 7163,
      "ç¿»æ»ļ": 7164,
      "æħķåħ°": 7165,
      "äº²çľ¼": 7166,
      "å¯»å¸¸äºº": 7167,
      "çĪĨåıĳèĢĮå¼Ģ": 7168,
      "éĢłåĮĸæŃ¦åŃ¦": 7169,
      "æĭħå¿§": 7170,
      "æĭīçĿĢ": 7171,
      "æĹłå½¢çģ«çĦ°": 7172,
      "ç©¶ç«Łæĺ¯ä»Ģä¹Ī": 7173,
      "è¿ľåı¤ç§ĺèĹı": 7174,
      "ä¸Ģçľĭ": 7175,
      "ä¸Ģå¹ķ": 7176,
      "åĬ³": 7177,
      "ä¹Łåıªæĺ¯": 7178,
      "æİı": 7179,
      "æŀĹåĬ¨ä¾¿æĺ¯": 7180,
      "å°Ĩå®ĥ": 7181,
      "åı¤éĺµ": 7182,
      "ç»ıå¸¸": 7183,
      "æİłè¿Ľ": 7184,
      "ä¸»è¦ģ": 7185,
      "é¡¿æĹ¶æľīçĿĢ": 7186,
      "åĪĨèº«": 7187,
      "è®©å¾Ĺå¥¹": 7188,
      "æ¨±": 7189,
      "æĢ¥éĢĢ": 7190,
      "çĿ½": 7191,
      "èİ²å¿ĥçģ«": 7192,
      "å¹¶ä¸įæĥ³": 7193,
      "å±ķå¼Ģ": 7194,
      "éĵģæ£į": 7195,
      "ç«Ļç«ĭ": 7196,
      "ä¼Ĺå¤ļçĽ®åħī": 7197,
      "çĹĽèĭ¦": 7198,
      "ç¬ĳçľ¯çľ¯çļĦéģĵ": 7199,
      "å°ĨçĽ®åħīæĬķåĲĳ": 7200,
      "çļĦæİĮæİ§": 7201,
      "âĶĤ": 7202,
      "çļĦæµĵéĥģ": 7203,
      "Ĩå°½": 7204,
      "çļĦå°ıåŃĲ": 7205,
      "ä¸įè¡Į": 7206,
      "éĤ£é»ĳèī²": 7207,
      "æĪ·": 7208,
      "å¾Ĺä¸Ģ": 7209,
      "çļĦæ½": 7210,
      "ä¾¿æĺ¯è¿ĻèĪ¬": 7211,
      "ä¾¿æĺ¯åĮĸä¸ºä¸Ģéģĵ": 7212,
      "å¿ĥåĬ¨": 7213,
      "èį¯åĬĽ": 7214,
      "åį´æĺ¯çĬ¹å¦Ĥ": 7215,
      "å½±åĵį": 7216,
      "å·²è¢«": 7217,
      "åĮĸè§£": 7218,
      "æ´ģ": 7219,
      "åĨ·éĿĻ": 7220,
      "æ¯Ķä»ĸ": 7221,
      "é¾Ļåħ½": 7222,
      "ç¬¬ä¸ĢæĽ´": 7223,
      "å®Ĺæ´¾å¤§èµĽ": 7224,
      "å©ļ": 7225,
      "å¦Ĥä»ĬçļĦä»ĸ": 7226,
      "çļĦæĥħæĬ¥": 7227,
      "å¤§æĪĲçļĦå¼ºèĢħ": 7228,
      "çļĦéº»çĥ¦": 7229,
      "çļĦè·Ŀç¦»": 7230,
      "ä¸įå·²": 7231,
      "ä¸įåģľ": 7232,
      "åľ¨ä¸İ": 7233,
      "åľ¨é»ĳè§ĴåŁŁ": 7234,
      "æľīæĹ¶åĢĻ": 7235,
      "åĩºä¸Ģ": 7236,
      "å¯¥": 7237,
      "å¯Ł": 7238,
      "æĢľ": 7239,
      "éĿ¢åŃĲ": 7240,
      "åĴ¯": 7241,
      "åĢĴå°ĦèĢĮåĩº": 7242,
      "æĥĬæģĲ": 7243,
      "åĽŀæĿ¥äºĨ": 7244,
      "è¿ĻäºĽä¸ľè¥¿": 7245,
      "éĶ¦": 7246,
      "åĵįäºĨèµ·æĿ¥": 7247,
      "éĩĳçŁ³": 7248,
      "ä¹Ŀåĵģ": 7249,
      "å¦ĤåĲĮæ½®æ°´": 7250,
      "å½ĵå¹´çļĦ": 7251,
      "çļĦæĬĬ": 7252,
      "åĨ²çĿĢæŀĹåĬ¨": 7253,
      "èį¯é¼İä¹ĭä¸Ń": 7254,
      "çļĦæ¯Ķ": 7255,
      "åģ·åģ·": 7256,
      "çĶ°éľĩ": 7257,
      "ä¸įè¿ĩå¥½åľ¨": 7258,
      "çļĦåīį": 7259,
      "çļĦæľĽåĲĳ": 7260,
      "çļĦç¬ĳå£°": 7261,
      "çļĦå°½å¤´": 7262,
      "æĿ°": 7263,
      "ä¹ĭä½Ļ": 7264,
      "å¯¹å¾ħ": 7265,
      "å¾®çľ¯çĿĢ": 7266,
      "äºĨä¸ĢåľĪ": 7267,
      "å°±ä¼ļ": 7268,
      "å°±æ¬²": 7269,
      "æ®Ĩå°½": 7270,
      "ä½ĵåĨħæļ´æ¶ĮèĢĮåĩº": 7271,
      "èĥ½éĩıæ³¢åĬ¨": 7272,
      "æĪĸè®¸æĺ¯": 7273,
      "çļĦæĶ¯": 7274,
      "çĤ¼åĪ¶ä¸¹èį¯": 7275,
      "èĿ¼": 7276,
      "å¼ĤéŃĶåŁŁ": 7277,
      "çļĦæ¶ĪèĢĹ": 7278,
      "åĮĹé¾Ļçİĭ": 7279,
      "ç«ĭåĪ»ä¾¿æĺ¯": 7280,
      "ç¨³ä½ı": 7281,
      "è¿ľè¿ľçľĭåİ»": 7282,
      "çĪ·çĪ·": 7283,
      "èĳĽ": 7284,
      "èĦĳæµ·ä¸Ń": 7285,
      "æ½ľåĬĽ": 7286,
      "åıĤèµĽèĢħ": 7287,
      "ä¾įå¥³": 7288,
      "åĩºäºĳå¸ĿåĽ½": 7289,
      "çļĦé£İ": 7290,
      "èĢĮæŃ¤æĹ¶": 7291,
      "ä¸Ĭä¸ĭ": 7292,
      "è¿ĩæīĭ": 7293,
      "ä½łè¿ĺ": 7294,
      "å¿ĥçĶŁ": 7295,
      "è¯´æĺİ": 7296,
      "è¾©": 7297,
      "çĦ¶åĲİå°Ĩ": 7298,
      "è¿Ļç§įæĥħåĨµ": 7299,
      "ç¼ĵç¼ĵç´§æı¡": 7300,
      "ä¼łè¿Ľ": 7301,
      "å¿ĥä¸Ńåĵįèµ·": 7302,
      "çļĦäººçī©": 7303,
      "ä¿®ç½Ĺ": 7304,
      "å®Įæķ´": 7305,
      "æ¯Ĵæĸĳ": 7306,
      "éŁ©éĹ²": 7307,
      "çĨı": 7308,
      "ä¸Īè®¸": 7309,
      "äº²ä¼ł": 7310,
      "å®ĭçľŁ": 7311,
      "èİ«åĩĮä¸īäºº": 7312,
      "ç¾¡æħķ": 7313,
      "èĿ¼èļģ": 7314,
      "sÃ¨": 7315,
      "Ġä½İæ²ī": 7316,
      "åľ¨ä¸Ńå·ŀ": 7317,
      "æĿ¥å¾Ĺ": 7318,
      "èĲ§çĤİèº«ä½ĵ": 7319,
      "æŀĹåı¯åĦ¿": 7320,
      "å£°æ³¢": 7321,
      "å¿ĥçļĦ": 7322,
      "çģ«éķ¿èĢģ": 7323,
      "æ²¡äºĨ": 7324,
      "æĸ¹å¼ı": 7325,
      "æĪĲéķ¿": 7326,
      "åĽŀäºĨ": 7327,
      "ĠæŀĹåĬ¨æľĽçĿĢéĤ£": 7328,
      "å¤ĸçļĦ": 7329,
      "çł´è£Ĥ": 7330,
      "è¡Įåĩº": 7331,
      "å°½åħ¨åĬĽ": 7332,
      "å¤±è¸ª": 7333,
      "éª¨å¹½": 7334,
      "æī©å¤§": 7335,
      "ä¸įåı¯èĥ½çļĦäºĭ": 7336,
      "è°Īè¯Ŀ": 7337,
      "ä¸ĸçķĮä¸Ĭ": 7338,
      "æİ¨èįĲ": 7339,
      "åĴ¬äºĨåĴ¬çīĻ": 7340,
      "æ®·çº¢": 7341,
      "è¯ŀçĶŁ": 7342,
      "ĠéĿĴ": 7343,
      "çļĦå²©æµĨ": 7344,
      "æĺ¯ä»ĸ": 7345,
      "èĢį": 7346,
      "æľīçļĦ": 7347,
      "èĲ§çĤİåĢĴæĺ¯": 7348,
      "åĪ°çİ°åľ¨": 7349,
      "ä¹Łæĺ¯å¿įä¸įä½ı": 7350,
      "çľ¼çĲĥ": 7351,
      "èĩªä¸»": 7352,
      "èĥ½å¤Łçľĭè§ģ": 7353,
      "æĹıçº¹": 7354,
      "åĨ·å£°éģĵ": 7355,
      "åĽŀå¤´": 7356,
      "åĽĽçĻ¾": 7357,
      "å¤ªä¸Ĭ": 7358,
      "çļĦäººç¾¤": 7359,
      "æīĵçĿĢ": 7360,
      "ä½İåĲ¼": 7361,
      "åĲ¸äºĨä¸Ģåı£æ°Ķ": 7362,
      "èĭ¥æľī": 7363,
      "åħ«æŀģ": 7364,
      "å²©çŁ³": 7365,
      "å¼¥æ¼«çļĦ": 7366,
      "èĥĮä¸Ĭ": 7367,
      "çĽŁä¸»": 7368,
      "çĦļçĥ§": 7369,
      "èŀįåħ¥": 7370,
      "çĶŁçĶŁçļĦå°Ĩ": 7371,
      "åĲĲè¡Ģ": 7372,
      "çļĦæĹ¶éĹ´ä¸Ń": 7373,
      "æľŁå¾ħ": 7374,
      "éĤªéŃĶ": 7375,
      "éĹ¯è¿Ľ": 7376,
      "æ²¡äºĭåĲ§": 7377,
      "é¢ĦæĸĻ": 7378,
      "æ£ºçĽĸ": 7379,
      "é»ĳçļĩå®Ĺ": 7380,
      "éĥĳéĩį": 7381,
      "Ġå·¨": 7382,
      "ä¸ĢæĮĳ": 7383,
      "ä¸Ģæ®µæĹ¶éĹ´": 7384,
      "ä¸įè¶³": 7385,
      "ä¹ĭåĬ¿": 7386,
      "ä»ĸæĸ¹æīį": 7387,
      "æŀĹåĬ¨æīĢ": 7388,
      "ä¹Łæĺ¯è¿ħ": 7389,
      "å£°ä¸Ń": 7390,
      "ä¾¿æĺ¯åĩºçİ°åľ¨": 7391,
      "ç©´": 7392,
      "ä¸įè¿ĩæĺ¯": 7393,
      "æŀģå°ĳ": 7394,
      "æĤ¦": 7395,
      "çł´é£İ": 7396,
      "å¤±ç¥ŀ": 7397,
      "ç«ŁçĦ¶è¿ŀ": 7398,
      "åıĹåĪ°äºĨ": 7399,
      "æļĹçº¢": 7400,
      "æľĪåħī": 7401,
      "ä»¿ä½Ľè¿ŀ": 7402,
      "å½ĵä¸ĭä¾¿æĺ¯": 7403,
      "åĥ»": 7404,
      "æĪĲåĬŁçļĦ": 7405,
      "æĪĲåĬŁçİĩ": 7406,
      "å¤©éĻħä¹ĭä¸Ĭ": 7407,
      "æĭĽæĥ¹": 7408,
      "åĮħè£¹çĿĢ": 7409,
      "æĲľå¯»": 7410,
      "è¾Ľèĭ¦": 7411,
      "åŁ¹åħ»": 7412,
      "Ġå¤§": 7413,
      "Ġä»ĸä»¬": 7414,
      "ä¸įå®¹æĺĵ": 7415,
      "æĪĪ": 7416,
      "åĨī": 7417,
      "å¾ĹçĬ¹å¦Ĥ": 7418,
      "å°Ĩèĩªå·±": 7419,
      "ç¾Ĭ": 7420,
      "åıĮæĭ³": 7421,
      "ä¸ĢæĬĵ": 7422,
      "çİĦå¥¥": 7423,
      "æĺİæĹ¥": 7424,
      "å°½å¿«": 7425,
      "å¾Īå¿«çļĦ": 7426,
      "äº¤éĶĻ": 7427,
      "çļĦéĤ£ä¸ª": 7428,
      "è¢įæľį": 7429,
      "è¿ĻéĩĮæĺ¯": 7430,
      "æĢİä¹Īä¼ļ": 7431,
      "åºĶè¯¥ä¹Łæĺ¯": 7432,
      "ä¸Ģå£°åĨ·åĵ¼": 7433,
      "åı°ä¹ĭä¸Ĭ": 7434,
      "ç¿»äºĨç¿»": 7435,
      "é»Ħèī²": 7436,
      "æľŁçĽ¼": 7437,
      "è¿ĽäºĨéĤ£": 7438,
      "çļĦå¤©æīį": 7439,
      "æ¬£æħ°": 7440,
      "æĩĴèħ°": 7441,
      "æ¸ħæĻ°çļĦæĦŁè§īåĪ°": 7442,
      "ĠåĹ¤åĹ¤": 7443,
      "ï¼ĮâĢĻ": 7444,
      "ä¸ĢåįĬ": 7445,
      "ãĢĤï¼ī": 7446,
      "èĢĮä»ĸ": 7447,
      "ä½łçİ°åľ¨": 7448,
      "ï¼Łï¼ģ": 7449,
      "æ·»": 7450,
      "åĸı": 7451,
      "çĶŁæ°Ķ": 7452,
      "éŃĶçļĩ": 7453,
      "åĲĳäºĨ": 7454,
      "ä¿®éķ¿çļĦ": 7455,
      "è½°çĪĨ": 7456,
      "æ»¡èº«": 7457,
      "æģĲæĢķä¼ļ": 7458,
      "å¹¶ä¸įçŁ¥éģĵ": 7459,
      "åĪ©é©¬": 7460,
      "é¼İçĤī": 7461,
      "åĮħæĭ¬": 7462,
      "é¸¡": 7463,
      "æ¡©": 7464,
      "èĵĿæ¨±": 7465,
      "åįķçĭ¬": 7466,
      "çļĦè¡Ģè¿¹": 7467,
      "æĮĳè¡ħ": 7468,
      "çħŀæ°Ķ": 7469,
      "åĵĹåķ¦": 7470,
      "çļĦæłĳ": 7471,
      "èĳ±éĥģ": 7472,
      "çļĦç¨ĭåº¦": 7473,
      "çļĦèĲ½ä¸ĭ": 7474,
      "æĺĤ": 7475,
      "ä¸Ģåĩº": 7476,
      "ä¸įåĩºæĿ¥": 7477,
      "æĿ¥ä¸įåıĬ": 7478,
      "èµı": 7479,
      "æŀĹåĬ¨ä½ĵåĨħ": 7480,
      "ä¹Łæĺ¯çĤ¹äºĨçĤ¹å¤´": 7481,
      "çĶ»": 7482,
      "ä½łè¯´": 7483,
      "ç©ºæ´ŀ": 7484,
      "è½»é£ĺé£ĺ": 7485,
      "æŃ»å¯Ĥ": 7486,
      "èĭ¥æĹł": 7487,
      "å¨ģä¸¥": 7488,
      "çĲĨæĻº": 7489,
      "çļĦæĬĵ": 7490,
      "æĥ³æĿ¥æĺ¯": 7491,
      "å±±å³°ä¹ĭä¸Ĭ": 7492,
      "å¼Ĥå¸¸çļĦ": 7493,
      "ä¸įè§ģå°½å¤´": 7494,
      "æĪ¿éĹ´ä¹ĭä¸Ń": 7495,
      "é«ĺçº§çİĭæľĿ": 7496,
      "æİĢèµ·ä¸ĢæĬ¹": 7497,
      "åı·ç§°": 7498,
      "çī¢çī¢": 7499,
      "çĨĬçĨĬ": 7500,
      "çļĦçĹķ": 7501,
      "-ï¼Į": 7502,
      "ĠâĢ¦âĢ¦": 7503,
      "ä¸Ģä¼ļ": 7504,
      "åĲµ": 7505,
      "ä¸įåĩ¡": 7506,
      "ä»ĸæľĽçĿĢ": 7507,
      "ä¹ŁçļĦç¡®": 7508,
      "æĢ¯": 7509,
      "å¯¹èĩªå·±": 7510,
      "ä½łåľ¨": 7511,
      "æĹłè¯Ń": 7512,
      "æģĴ": 7513,
      "æľīçĿĢä¸Ģä¸ª": 7514,
      "æĸ¹è¨Ģ": 7515,
      "ä»ĸä»¬æīĢ": 7516,
      "åı¤æ¢¦çĲª": 7517,
      "çĶŁçģµ": 7518,
      "éĿĴé¸¾": 7519,
      "åħĥä¹¾": 7520,
      "éļ¾ç¼ł": 7521,
      "æĹ¥åŃĲ": 7522,
      "æīĵå¼Ģ": 7523,
      "èĪ¬çļĦåŃĺåľ¨": 7524,
      "ç«ŁçĦ¶æķ¢": 7525,
      "è£ĤèĢĮå¼Ģ": 7526,
      "åİŁåľ°": 7527,
      "å¼¥æ¼«å¼ĢæĿ¥": 7528,
      "åīĳèĬĴ": 7529,
      "èĭıéŃģ": 7530,
      "æ¶ħçĽĺéĩĳ": 7531,
      "æ´ªè¾°": 7532,
      "å¤Ńå¤ľ": 7533,
      "æ¼Ĥäº®": 7534,
      "ä¸ļ": 7535,
      "çļĦè¿Ļ": 7536,
      "çļĦå¥½": 7537,
      "çļĦé¾Ļ": 7538,
      "ä¸Ģè¶Ł": 7539,
      "è¿Ļå°ı": 7540,
      "èĢĮçİ°åľ¨": 7541,
      "ä¹ŁæŃ£æĺ¯": 7542,
      "å¹¼": 7543,
      "å¤©é³Ħ": 7544,
      "ä»¥èĲ§çĤİ": 7545,
      "ä¿Ĺ": 7546,
      "åı¤éĿĴéĺ³": 7547,
      "çĦ¶åĲİå¯¹çĿĢ": 7548,
      "çĮ®": 7549,
      "ç¿³": 7550,
      "æ³¢åıĬ": 7551,
      "åįĥå¹´": 7552,
      "éĢĢå¼Ģ": 7553,
      "å¹¶ä¸įèĥ½": 7554,
      "ä¹Įé»ĳ": 7555,
      "çŁŃçŁŃæķ°": 7556,
      "åĪļæ¬²è¯´è¯Ŀ": 7557,
      "çİ¯å¢ĥ": 7558,
      "çļĦæ´ŀ": 7559,
      "æ´ĭæ´ĭ": 7560,
      "æ²¿çĿĢ": 7561,
      "çļĦçĹķè¿¹": 7562,
      "ĠåĴļ": 7563,
      "æĺ¯æĥ³": 7564,
      "ä¸ĢéĿ¢": 7565,
      "åĪ·": 7566,
      "ä¹ŁåĲĮæł·æĺ¯": 7567,
      "çļĦæº": 7568,
      "æĥ«": 7569,
      "å±¿": 7570,
      "åıªä¼ļ": 7571,
      "ä¸įè¿ĩæĪĳ": 7572,
      "ä¸¹ä¸¸": 7573,
      "çĽ¸å¯¹": 7574,
      "åħĪæĺ¯ä¸Ģ": 7575,
      "è¿ŀéĤ£": 7576,
      "åıĮèĦļ": 7577,
      "æ·±å±±": 7578,
      "è¨Ģè¯Ń": 7579,
      "åį°ç»ĵ": 7580,
      "æ¶ĪçĤİ": 7581,
      "åĲİèĢħçļĦ": 7582,
      "è¡£è¢į": 7583,
      "åĩ¶æĪ¾": 7584,
      "ä»Ļæ±ł": 7585,
      "èİ«éĿŀ": 7586,
      "ä¸ĢåĲįèº«çĿĢ": 7587,
      "éĺ¶éŃĶåħ½": 7588,
      "æĹ©å·²": 7589,
      "çļĦæĬ½": 7590,
      "æħķèĬĬèĬĬ": 7591,
      "çīĻé½¿": 7592,
      "åĨ²çĿĢèĲ§çĤİ": 7593,
      "ä¸įçŁ¥ä¸įè§ī": 7594,
      "çº¯åħĥ": 7595,
      "åĲĥäºĨ": 7596,
      "åı¹æģ¯äºĨä¸Ģå£°": 7597,
      "Ġæĥ³åĪ°æŃ¤å¤Ħ": 7598,
      "ä¸įç®Ĺ": 7599,
      "éĤ£æŀĹåĬ¨": 7600,
      "ä¹ĭä½į": 7601,
      "ä»ĸèĥ½": 7602,
      "éĿ¢å¯¹": 7603,
      "èĩªçĪĨ": 7604,
      "åĮĻ": 7605,
      "è¾¨": 7606,
      "å¥½åĥı": 7607,
      "æŀģå¤§": 7608,
      "åıĺäºĨ": 7609,
      "çŀİ": 7610,
      "ç½ļ": 7611,
      "éļĲæĻ¦": 7612,
      "åľ¨è¿Ļä¸Ģéľİ": 7613,
      "è§Ĩéĩİ": 7614,
      "åıĮæĮĩ": 7615,
      "åıĮçŀ³": 7616,
      "ä¸»äºº": 7617,
      "æīĵå¾Ĺ": 7618,
      "è¿ĻèĪ¬ä¸¾åĬ¨": 7619,
      "æ·¡æ·¡çļĦå£°éŁ³": 7620,
      "çķĻåľ¨": 7621,
      "åį³ä¾¿æĺ¯ä»ĸ": 7622,
      "çŁŃæĹ¶éĹ´": 7623,
      "ä¼łåĩºä¸Ģéģĵ": 7624,
      "ç¿»æ¶Į": 7625,
      "éªĩäºº": 7626,
      "ç¢İçŁ³": 7627,
      "ä¸ĢçĤ¹çĤ¹": 7628,
      "ç¥ŀç§ĺçļĦ": 7629,
      "ä¼¸æīĭ": 7630,
      "å©´": 7631,
      "çļĦæ¯ı": 7632,
      "å°ļè¿ĺæľª": 7633,
      "åĪĽéĢł": 7634,
      "ä¸Ģå®ļè¦ģ": 7635,
      "åĳľåĳľ": 7636,
      "çĥĽç¦»": 7637,
      "çļĦçĿģå¼Ģ": 7638,
      "Ġè¿Ļæĺ¯": 7639,
      "æĺ¥": 7640,
      "èº«æĢĢ": 7641,
      "æŀĹåĬ¨ä¸Ģçľ¼": 7642,
      "å°ıåĺ´": 7643,
      "èĪŁ": 7644,
      "å¼ºåĮĸ": 7645,
      "åīįåİ»": 7646,
      "èĩªä¿¡": 7647,
      "å¥½åĲ§": 7648,
      "åľºä¸ŃçļĦ": 7649,
      "åıįå¯¹": 7650,
      "é©³": 7651,
      "åĲĪä½ľ": 7652,
      "æĢ§çļĦ": 7653,
      "ä¹¾åĿ¤åı¤éĺµ": 7654,
      "ç½Ĺé¹«": 7655,
      "æĬĹæĭĴ": 7656,
      "æ¯ıæ¬¡": 7657,
      "æŃ¦åĬ¨ä¹¾åĿ¤åĲ§": 7658,
      "æī¿è®¤": 7659,
      "è¿Ļä¸Ģæ¬¡çļĦ": 7660,
      "å²Ľå±¿": 7661,
      "æ¦ľä¸Ĭ": 7662,
      "é¡ºåĪ©çļĦ": 7663,
      "çģ°è¡£èĢģèĢħ": 7664,
      "ä¸įçĿĢçĹķè¿¹": 7665,
      "éª·é«ħ": 7666,
      "ä¸ĢåĴ¬çīĻ": 7667,
      "æľ½": 7668,
      "éĤĥ": 7669,
      "éĤ£ä¸Ģéģĵ": 7670,
      "åľ¨ä¸ĢæĹģ": 7671,
      "ä»ĸä¼ļ": 7672,
      "èĢĮä¼´éļıçĿĢ": 7673,
      "è¿ĩçļĦ": 7674,
      "ä¾¿æĺ¯å¾Ĺ": 7675,
      "ä½łä¾¿": 7676,
      "è¦ģå®³": 7677,
      "åĽĽåĲį": 7678,
      "çļĦä¸Ģç§į": 7679,
      "åĢĴæĺ¯æľīäºĽ": 7680,
      "åıĪèĥ½": 7681,
      "çĭłçĭłçļĦçł¸": 7682,
      "ç»Ĩç»Ĩ": 7683,
      "æ¶ħç£Ĳ": 7684,
      "å¹²åĩĢ": 7685,
      "çģ°å°ĺ": 7686,
      "éĵ¶å¡Ķ": 7687,
      "Ġè§ģåĪ°æŀĹåĬ¨": 7688,
      "ç½®åı¯åĲ¦": 7689,
      "æŃ¤æ¬¡çļĦ": 7690,
      "éĤ£èĪ¬æ¨¡æł·": 7691,
      "ï¼ģï¼ģï¼ģ": 7692,
      "åĮ¹æķĮ": 7693,
      "çŀŁäºĨä¸Ģçľ¼": 7694,
      "èĲ§çĤİéĿ¢åīį": 7695,
      "åĲİä¸įä¹ħ": 7696,
      "ä¹Łæĺ¯ç¼ĵç¼ĵçļĦ": 7697,
      "ä¾¿æĺ¯ä»İ": 7698,
      "çģ«èĭĹ": 7699,
      "æĹłçĶ¨": 7700,
      "ä¹ĭä¸ŃæīĢ": 7701,
      "æĪĺåľĪ": 7702,
      "å§ĵ": 7703,
      "éĺ´ç¿³": 7704,
      "åįĥä¸ĩ": 7705,
      "ä¸Ģç§įæŀģä¸º": 7706,
      "ä»¤å¾Ĺä»ĸä»¬": 7707,
      "é£ŀéĢŁ": 7708,
      "çĶ±æŃ¤": 7709,
      "åĩĮå½±": 7710,
      "æľªæĽ¾æĸĻåĪ°": 7711,
      "éĢĲæ¸ĲçļĦåıĺå¾Ĺ": 7712,
      "è·Ŀç¦»æĹ¶": 7713,
      "çļĦæģ©": 7714,
      "çľ¨äºĨ": 7715,
      "é½Ĳé½Ĳ": 7716,
      "æĥ¨çĥĪ": 7717,
      "å¤ıä¸ĩéĩĳ": 7718,
      "æºĲæºĲä¸įæĸŃ": 7719,
      "åħĥä¸¹å¢ĥå¤§åľĨæ»¡": 7720,
      "èĦļå°ĸä¸ĢçĤ¹": 7721,
      "æķıéĶĲ": 7722,
      "çļĦçħ§": 7723,
      "ç¬ĳåĲŁåĲŁçļĦéģĵ": 7724,
      "æīĭæīĵå°ıè¯´": 7725,
      "éĤ£åºŀå¤§çļĦ": 7726,
      "åĩ¸": 7727,
      "èĢĮåĪ°æĹ¶åĢĻ": 7728,
      "ä¹Łåıªå¾Ĺ": 7729,
      "æŀĹéĹ´": 7730,
      "ä¸ĬéĹ¨": 7731,
      "çļĦæ¹": 7732,
      "çļĦæĵ": 7733,
      "æŀĹåĬ¨èĥ½å¤Ł": 7734,
      "å·į": 7735,
      "ä¸ªä¸ª": 7736,
      "äºĨä¸ĢèĤ¡": 7737,
      "åı¯è¿ĺ": 7738,
      "æĹłç©·": 7739,
      "é»ĳçĻ½": 7740,
      "é»ĳé¾Ļ": 7741,
      "è½»çĤ¹": 7742,
      "åı¤å¦ĸ": 7743,
      "éĽ·å°ĬèĢħ": 7744,
      "è´¯": 7745,
      "æĦŁè°¢": 7746,
      "ä¸ľé¾Ļå²Ľ": 7747,
      "çº¢èĬĴ": 7748,
      "çĭĤçĮĽ": 7749,
      "å¾Īå¿«": 7750,
      "é²¸": 7751,
      "èĮ§": 7752,
      "ç§ĺå¯Ĩ": 7753,
      "èº«ä¸Ĭæī«è¿ĩ": 7754,
      "ä»ħä»ħåıªèĥ½": 7755,
      "åĩĿéĩįèµ·æĿ¥": 7756,
      "éĤ£ä¸ªå®¶ä¼Ļ": 7757,
      "å¢ĵåºľ": 7758,
      "å¯¹è§Ĩä¸Ģçľ¼": 7759,
      "æīĢåľ¨çļĦæĸ¹åĲĳ": 7760,
      "çĭ®çİĭ": 7761,
      "çĩ¥": 7762,
      "éĴ¥åĮĻ": 7763,
      "éľįåħĥ": 7764,
      "å±ģèĤ¡": 7765,
      "æĳ§æ¯ģ": 7766,
      "å¤§å¤©éĤªéŃĶ": 7767,
      "éĵłçĶ²": 7768,
      "âĶĤâĶĤ": 7769,
      "Ġæĺ¯": 7770,
      "Ġå¥¹": 7771,
      "çļĦä¸¤": 7772,
      "äºŃ": 7773,
      "ä¸Ģå°Ĭ": 7774,
      "åľ¨å¤§": 7775,
      "æĿ¨": 7776,
      "ä¹ĭçģµ": 7777,
      "ä¹Łéļ¾ä»¥": 7778,
      "å¸ģ": 7779,
      "ä½łæĥ³": 7780,
      "æ°Ķè´¨": 7781,
      "éĺ¿": 7782,
      "äºĨä¸ĢåĪĨ": 7783,
      "ä»¥ä¸Ģ": 7784,
      "ä»ĸä»¬èĥ½å¤Ł": 7785,
      "åı¤çİī": 7786,
      "æĦıè¯Ĩ": 7787,
      "æľªåħį": 7788,
      "æ¸ħéĨĴ": 7789,
      "æĮĩçĿĢ": 7790,
      "ç«ŁçĦ¶ä¾¿æĺ¯": 7791,
      "ä¸ĢèĤ¡æŀģä¸º": 7792,
      "å±ħé«ĺ": 7793,
      "çŀ¬æģ¯": 7794,
      "çļĦæ¶²": 7795,
      "æĢİä¹ĪäºĨ": 7796,
      "çļĦæľĽçĿĢèĲ§çĤİ": 7797,
      "éĢıæĺİ": 7798,
      "ç¼ĿéļĻ": 7799,
      "æ»ļçĥ«": 7800,
      "æ´ªå®¶": 7801,
      "ç¬¦å¸Īå¡Ķ": 7802,
      "èĥĨåŃĲ": 7803,
      "Ġä¸ī": 7804,
      "Ġç«Ļåľ¨": 7805,
      "ä¸įæŃ¢": 7806,
      "ä¹Łæķ¢": 7807,
      "æĿ¥åĲ§": 7808,
      "å¤§åĬ¿åĬĽ": 7809,
      "å¤©åĨ¥å®Ĺ": 7810,
      "æĪĳèĥ½": 7811,
      "çľŁä»·": 7812,
      "æİĮåį°": 7813,
      "éĽ·ä½ĵ": 7814,
      "åĲįæ°Ķ": 7815,
      "åľ¨è¿ĻçŃī": 7816,
      "çĻ¾ç±³": 7817,
      "åĹħ": 7818,
      "ä¸ĭæĿ¥çļĦ": 7819,
      "äº¤åĩºæĿ¥": 7820,
      "åİĭç¼©": 7821,
      "éĥ¨éĺŁ": 7822,
      "å¼ķèµ·äºĨ": 7823,
      "éĺģä¸ĭ": 7824,
      "éĺģä¸»": 7825,
      "çĭŀç¬ĳ": 7826,
      "ç¬¬ä¸Ģåįĥä¸īçĻ¾": 7827,
      "éľ¸ä¸»": 7828,
      "çļĦçł´åĿı": 7829,
      "çĲ¥ä¹¾": 7830,
      "çļĦçĥŃ": 7831,
      "ĠåĲ¼": 7832,
      "ĠåĹ¡": 7833,
      "çļĦç¥ŀç§ĺ": 7834,
      "è¿Ļå°±æĺ¯": 7835,
      "éĤ£åī¯": 7836,
      "âĢľâĢĿ": 7837,
      "æľīäºĭ": 7838,
      "æĪ®": 7839,
      "èµĮ": 7840,
      "å¦¥": 7841,
      "åħīåĩŃ": 7842,
      "åį´ä¾ĿçĦ¶": 7843,
      "çĽ®åħīæī«": 7844,
      "çŃīåĪ°": 7845,
      "çŃīç¬¦åĤĢ": 7846,
      "éŃĶéĹ¨": 7847,
      "åĨ·åĸĿéģĵ": 7848,
      "éļ¾åħį": 7849,
      "æģĲæĢķå°±": 7850,
      "åĨ°ä¸»": 7851,
      "èĻļåŃĲ": 7852,
      "æµģåĬ¨": 7853,
      "æ¯ĴèĽĩ": 7854,
      "èº«ä¸Ĭæī«äºĨæī«": 7855,
      "èĬ±è´¹": 7856,
      "è°¢ä¸¤å®¶": 7857,
      "æ¶ĮåĬ¨çĿĢ": 7858,
      "è¶ħè¿ĩ": 7859,
      "æĭĽåĳ¼": 7860,
      "çļĦæĢ¥": 7861,
      "æľŁéĹ´": 7862,
      "åĮħè£¹èĢĮè¿Ľ": 7863,
      "å©Ĩ": 7864,
      "å§ľéĽ·": 7865,
      "ä¸īä½įéķ¿èĢģ": 7866,
      "è´§çľŁä»·": 7867,
      "ä¸°å¯Į": 7868,
      "è½°éļĨéļĨçļĦ": 7869,
      "çļĦç£ħç¤´": 7870,
      "Ġåľºä¸Ń": 7871,
      "ä¸ĢçŃ¹": 7872,
      "äºĨæıī": 7873,
      "ä¸įç½®åı¯åĲ¦": 7874,
      "è¿Ļä»½": 7875,
      "è¿Ļå¥³äºº": 7876,
      "å¼¦": 7877,
      "äººå¿ĥ": 7878,
      "æĪĳä¸į": 7879,
      "éĥ½è¢«": 7880,
      "åħ¶èº«åĲİ": 7881,
      "åı¯çľŁæĺ¯": 7882,
      "çģ«é¾Ļ": 7883,
      "çģ«èĬ±": 7884,
      "èį£": 7885,
      "è¦ģçľĭçľĭ": 7886,
      "æĥ³äºĨ": 7887,
      "åĺĽ": 7888,
      "çĽ´å¥Ķ": 7889,
      "éŃĶèĽŁ": 7890,
      "åľ¨éĤ£äºĽ": 7891,
      "èµ°åĲĳ": 7892,
      "æ»¡æĦıçļĦ": 7893,
      "æĢĴåĲ¼": 7894,
      "åĩ¶åħī": 7895,
      "èĹī": 7896,
      "çŀ§çĿĢ": 7897,
      "æķħæĦı": 7898,
      "æĺŁæĸĹçļĩ": 7899,
      "çļĦæ··": 7900,
      "èĮĥåĩĮ": 7901,
      "æ¶Įçİ°ä¸ĢæĬ¹": 7902,
      "çĢĳ": 7903,
      "æ¡Ģæ¡Ģ": 7904,
      "ç©ĨåĬĽ": 7905,
      "é²²çģµ": 7906,
      "ĠåĽłä¸º": 7907,
      "çļĦéĺ²å¾¡": 7908,
      "ä½¼": 7909,
      "åĬ¨äºĨä¸Ģä¸ĭ": 7910,
      "èĢĮåľ¨åħ¶": 7911,
      "æĿ¥åİĨ": 7912,
      "èĲ§çĤİä¸ĢæĢĶ": 7913,
      "ä¸Ĭä¸Ģæ¬¡": 7914,
      "ç§ĭ": 7915,
      "ï¼ģ_": 7916,
      "å¾®å¼±": 7917,
      "éĿ¢éľ²": 7918,
      "æĭĩ": 7919,
      "åīįå¾Ģ": 7920,
      "é»ĳæĵİ": 7921,
      "éĽ·å²©": 7922,
      "çİ°åľ¨çļĦæŀĹåĬ¨": 7923,
      "èĲ½èĩ³": 7924,
      "åıĳéº»": 7925,
      "çªģçĦ¶éģĵ": 7926,
      "çļĦä¸Ģç¬ĳ": 7927,
      "éĿ¢èī²æľīäºĽ": 7928,
      "âĢ¦âĢ¦âĢĿï¼Į": 7929,
      "åĽ¢éķ¿": 7930,
      "å®īæħ°": 7931,
      "æµģéĢĿ": 7932,
      "ç¿¼çĭ®çİĭ": 7933,
      "çľīå¤´ä¸Ģçļ±": 7934,
      "äºĳå²ļå®Ĺå¼ŁåŃĲ": 7935,
      "ä¸Ģéĺµéĺµ": 7936,
      "åĩ°å¤©": 7937,
      "æĻĭçº§": 7938,
      "ç£ħç¤´åħĥåĬĽ": 7939,
      "å¥Ķèħ¾": 7940,
      "äºĨä»ĸä¸Ģçľ¼": 7941,
      "çĽĪçĽĪ": 7942,
      "å°ıè¯´æīĭæīĵå°ıè¯´": 7943,
      "åĮĸé¾Ļè¯Ģ": 7944,
      "è®Ńç»ĥ": 7945,
      "çļĦæĤ¬": 7946,
      "ä¸īåįĥéĽ·åĬ¨": 7947,
      "é¡¶çĤ¹å°ıè¯´æīĭæīĵå°ıè¯´": 7948,
      "ä¸Ģåį·": 7949,
      "è¿ĻæĿ¡": 7950,
      "è¿Ļæŀļ": 7951,
      "å¼©": 7952,
      "æľīæľºä¼ļ": 7953,
      "èº«æ³ķ": 7954,
      "éĥ½çŁ¥éģĵ": 7955,
      "ç©ºèį¡èį¡": 7956,
      "äºİèº«åĲİ": 7957,
      "çŃĭ": 7958,
      "éŃĶæ¯Ĵæĸĳ": 7959,
      "åĨ²çªģ": 7960,
      "å®¹é¢ľ": 7961,
      "å®ļåĬĽ": 7962,
      "åŁİçļĦ": 7963,
      "åĲ¸çº³": 7964,
      "ä¸ĩèĿİ": 7965,
      "åŃ¦éķ¿": 7966,
      "âĢ¦âĢ¦âĢĿãĢĤ": 7967,
      "å¼Ĥçģ«çļĦ": 7968,
      "çŀ¬éĹ´åĲİ": 7969,
      "æĹłæ³ķæĥ³è±¡": 7970,
      "éĥ¨ä½į": 7971,
      "çļĦéĿĴèī²çģ«çĦ°": 7972,
      "æľ¨æ¡©": 7973,
      "åį±æľº": 7974,
      "è¡¨éĿ¢ä¸Ĭ": 7975,
      "æį¢ä½ľ": 7976,
      "è´µå®¾": 7977,
      "ä¸ĢæĬĬæĬĵä½ı": 7978,
      "éĶ¤çĤ¼": 7979,
      "éĿĻéĿĻçļĦ": 7980,
      "çļĦçŃīå¾ħ": 7981,
      "çļĦçĨŁ": 7982,
      "?âĢĿ": 7983,
      "Ġèº«ä½ĵ": 7984,
      "Ġè¿Ļä¸ª": 7985,
      "Ġä¼Ĺäºº": 7986,
      "ĠæŃ¤æĹ¶çļĦ": 7987,
      "ä¸ĢéľİéĤ£": 7988,
      "åľ¨åĳ¨åĽ´": 7989,
      "æ²Į": 7990,
      "åŃ½": 7991,
      "å°ĨæĪĳ": 7992,
      "æ°Ķå¾Ĺ": 7993,
      "éĺħ": 7994,
      "åĳĲ": 7995,
      "åı¯çĪ±": 7996,
      "çģ«æĻ¶": 7997,
      "å½ĵçĿĢ": 7998,
      "è´¢": 7999,
      "åĩłçİĩ": 8000,
      "å·¨äºº": 8001,
      "çŁ³åĥı": 8002,
      "èĭ¥æĺ¯æ²¡æľī": 8003,
      "åĽĽä¸ª": 8004,
      "èµ°åİ»": 8005,
      "ç©ºéĹ´èĻ«æ´ŀ": 8006,
      "éĿ¢èī²éĥ½æĺ¯": 8007,
      "å¿«è¦ģ": 8008,
      "éĢĢåİ»": 8009,
      "èģļéĽĨ": 8010,
      "ä¿®çĤ¼äºĨ": 8011,
      "è·ŁæĪĳ": 8012,
      "ä»¿èĭ¥": 8013,
      "ä½¿åĬ²": 8014,
      "å¸®æĪĳ": 8015,
      "èĩªçĦ¶ä¸įä¼ļ": 8016,
      "çĭ¼èĹī": 8017,
      "å¹»å¢ĥ": 8018,
      "éħ¬": 8019,
      "æļ´æİłèĢĮæĿ¥": 8020,
      "åĶ¯æľīçĿĢ": 8021,
      "æī¬äºĨ": 8022,
      "åħįå¾Ĺ": 8023,
      "èĭ¦ç¬ĳä¸Ģå£°": 8024,
      "åĨ²å¤©èĢĮèµ·": 8025,
      "çļĦæ¶²ä½ĵ": 8026,
      "ng": 8027,
      "´äºº": 8028,
      "Ġå¯Łè§īåĪ°": 8029,
      "çļĦè¶ħçº§": 8030,
      "åľ¨è§ģåĪ°": 8031,
      "å°ıåħ¬ä¸»": 8032,
      "åİ»æī¾": 8033,
      "è¦ģçŁ¥éģĵ": 8034,
      "éľĦ": 8035,
      "ç¬¬åįģ": 8036,
      "å²Ĺ": 8037,
      "éĺ´çĭł": 8038,
      "æĿĢæ°Ķ": 8039,
      "ä¼¼ä¹İä¹Łæĺ¯": 8040,
      "ç«Łæĺ¯æľīçĿĢ": 8041,
      "æ£®å¯Ĵ": 8042,
      "æĢĶæĢĶ": 8043,
      "çł°çļĦä¸Ģå£°": 8044,
      "æĵħ": 8045,
      "éĢĥèĦ±": 8046,
      "åĨ·ç¬ĳäºĨä¸Ģå£°": 8047,
      "æĺ¾å¾ĹæľīäºĽ": 8048,
      "åĽºçĦ¶": 8049,
      "æ¹¿": 8050,
      "æĽ¹å®¶": 8051,
      "åĪĴçł´": 8052,
      "èĴ¸": 8053,
      "åĤ²æ°Ķ": 8054,
      "å¢Ļå£ģ": 8055,
      "åĬłåĪĹå¥¥": 8056,
      "éĿĴé¾Ļåħīçº¹": 8057,
      "éĢĤåĲĪ": 8058,
      "è½¬è¿ĩèº«æĿ¥": 8059,
      "ä½İçº§çİĭæľĿ": 8060,
      "æĬļçĿĢ": 8061,
      "åĮĸé¾Ļæ½Ń": 8062,
      "æ¼Ĥæµ®": 8063,
      "åĪºèĢ³çļĦ": 8064,
      "åīĬçĺ¦èº«å½±": 8065,
      "ä½İä½İçļĦ": 8066,
      "æľ¬åĳ½çģµç¬¦": 8067,
      "ä¸īå¤´éŃĶèĽŁ": 8068,
      "ç¿»äºĨç¿»çĻ½çľ¼": 8069,
      "æĭĩæĮĩ": 8070,
      "Ġä½Ĩ": 8071,
      "Ġå·¨å¤§çļĦ": 8072,
      "çļĦä¼łæī¿": 8073,
      "åıł": 8074,
      "æĹ·": 8075,
      "éĤ£æĪĳä»¬": 8076,
      "éĤ£ä¸Ģéģĵéģĵ": 8077,
      "å¾Ĭ": 8078,
      "ä»ĸçİ°åľ¨": 8079,
      "åĩºçļĦ": 8080,
      "æķ²": 8081,
      "å¾®è¹Ļ": 8082,
      "ä¼ļä¸įä¼ļ": 8083,
      "éĽĢ": 8084,
      "ä¸¤æŀļ": 8085,
      "åĨįæľī": 8086,
      "ä¸įè¿ĩå½ĵ": 8087,
      "åıĺå¼º": 8088,
      "è®©æĪĳä»¬": 8089,
      "æĦŁåı¹": 8090,
      "æļ´åĬ¨": 8091,
      "æĹ¶éĹ´çļĦ": 8092,
      "æİłä¸Ĭ": 8093,
      "èĭ¥æĺ¯è¦ģ": 8094,
      "æīĵéĢļ": 8095,
      "å®ļäºĨ": 8096,
      "å¿įåıĹ": 8097,
      "è¿Ľåħ¥åħ¶ä¸Ń": 8098,
      "ç£ĭ": 8099,
      "æ¸©æļĸ": 8100,
      "å½ĵåĪĿåľ¨": 8101,
      "æ¯«ä¸įçĬ¹è±«": 8102,
      "çļĦçªľ": 8103,
      "é¼»åŃĲ": 8104,
      "çļĦæĬ¬èµ·": 8105,
      "æ¸ħæ¾Ī": 8106,
      "æī¬äºĨæī¬": 8107,
      "ä¸ĢæľĪ": 8108,
      "åħ¸": 8109,
      "è¿Ļä¸ī": 8110,
      "éĤ£ä¹Łæĺ¯": 8111,
      "å¼Ĺ": 8112,
      "çľ©": 8113,
      "ä¹ĭåĲį": 8114,
      "èĲ§çĤİåĺ´è§Ĵ": 8115,
      "å¤©åĮĸé¾Ļè¯Ģ": 8116,
      "èĢģäººçļĦ": 8117,
      "ä½ĵè´¨": 8118,
      "æĮ²": 8119,
      "æĥ³çĿĢ": 8120,
      "æĪĲåĳĺ": 8121,
      "ä¸¤å¥³": 8122,
      "åĨįæİ¥çĿĢ": 8123,
      "éĽ·çĶµ": 8124,
      "éĽ·è°¢ä¸¤å®¶": 8125,
      "éŃĶé²¨": 8126,
      "çŀ©": 8127,
      "æŃ¥çļĦ": 8128,
      "ĠæŀĹåĬ¨éĿ¢èī²": 8129,
      "è¿ŀç»µ": 8130,
      "ç©ºéĹ´ä¹ĭä¸Ń": 8131,
      "é«ĺåı°ä¸Ĭ": 8132,
      "ç«ŁçĦ¶ä¹Łæĺ¯": 8133,
      "ç´«äºĳ": 8134,
      "å¹³è¡¡": 8135,
      "çģµéŃĤä½ĵ": 8136,
      "åģľåľ¨äºĨ": 8137,
      "å´ĩ": 8138,
      "å¸¦çĿĢä¸Ģä¸Ŀ": 8139,
      "åĪĩç£ĭ": 8140,
      "åı³æīĭ": 8141,
      "ä¼¸åĩºæīĭ": 8142,
      "è¾°éĹ²": 8143,
      "æĭ¼äºĨ": 8144,
      "æĥ§æĢķ": 8145,
      "çģĮæ³¨è¿Ľåħ¥": 8146,
      "åĲ¸äºĨä¸Ģåı£åĩīæ°Ķ": 8147,
      "çļĦé»ĳè¢įéĿĴå¹´": 8148,
      "è´Ńä¹°": 8149,
      "è¿Ļä¹ĭä¸Ń": 8150,
      "åľ¨å¥¹": 8151,
      "åħīå½©": 8152,
      "è¡į": 8153,
      "å¾®ç¬ĳçĿĢ": 8154,
      "æ³ª": 8155,
      "ä½Ĩä»ĸä»¬": 8156,
      "æľīäºĽçĸĳæĥĳ": 8157,
      "æĹĭåį³éĤ£": 8158,
      "çªĹ": 8159,
      "çĽ¸æĬĹè¡¡": 8160,
      "äºĳéľĦ": 8161,
      "å¤ĸäºº": 8162,
      "æŃ»æ°Ķ": 8163,
      "çº¢åħī": 8164,
      "ä¿®è¡Į": 8165,
      "å¯¹äºİè¿Ļä¸ª": 8166,
      "ç©ºéĹ´ä¸Ń": 8167,
      "çĽ¯çĿĢèĲ§çĤİ": 8168,
      "æķ´æķ´": 8169,
      "åıĸåĪ°": 8170,
      "åĪĩé½¿": 8171,
      "æĢĿè®®": 8172,
      "éĽĦæµĳæĸĹæ°Ķ": 8173,
      "æ²Ļéĵģ": 8174,
      "çļĦæ³¨è§ĨçĿĢ": 8175,
      "çº³æĪĴä¹ĭä¸Ń": 8176,
      "æĪªçĦ¶": 8177,
      "æ·¬çĤ¼": 8178,
      "éĻĪå¢ĵ": 8179,
      "éĶģå®ļçĿĢ": 8180,
      "çİĦéĺ´æ¶§": 8181,
      "ĠåĲ¬çĿĢ": 8182,
      "çļĦè¿ĻäºĽ": 8183,
      "ä¸įä¸ĭ": 8184,
      "çĦ¶çļĦ": 8185,
      "ä¹ĭæīĢ": 8186,
      "åĩºä»Ģä¹Ī": 8187,
      "å¤§åĪĢ": 8188,
      "è¿ĩå¤ļ": 8189,
      "èĩªèº«": 8190,
      "éľľ": 8191,
      "éĿĴçº¢": 8192,
      "åįģæĮĩ": 8193,
      "åĢĴéĢĢ": 8194,
      "éŃĤèĻļåŃĲ": 8195,
      "è£ģ": 8196,
      "çĭĤå¦Ħ": 8197,
      "äºĶéģĵ": 8198,
      "äº¤è¿ĩæīĭ": 8199,
      "çİīçŁ³": 8200,
      "ĠèĲ§çĤİå¾®å¾®çĤ¹å¤´": 8201,
      "æ£®æ£®": 8202,
      "æĪĸè®¸ä¼ļ": 8203,
      "æĢĶäºĨä¸Ģä¸ĭ": 8204,
      "æĬµæĬĹ": 8205,
      "çľ¼åīįè¿Ļ": 8206,
      "çļĦæ¯ģ": 8207,
      "æĮ¯åĬ¨": 8208,
      "åĴ¬çīĻåĪĩé½¿": 8209,
      "åĲ¸å¼ķåĬĽ": 8210,
      "èĤĨèĻĲ": 8211,
      "çļĦæµ·æ³¢ä¸ľ": 8212,
      "é£İäºĳçİĭæľĿ": 8213,
      "çļĦå¿µå¤´": 8214,
      "ä¸ĢæĪĺ": 8215,
      "äºĨå¤ļå°ĳ": 8216,
      "ä¹ĭæīĢä»¥": 8217,
      "èĲ§çĤİæīĭä¸Ń": 8218,
      "å¯¹æģĥ": 8219,
      "ä½łèĩªå·±": 8220,
      "åı¯ä¸įä¼ļ": 8221,
      "æīĢåĮĸ": 8222,
      "å°±è¦ģ": 8223,
      "åıªåĲ¬å¾Ĺ": 8224,
      "ç¥ŀæĻº": 8225,
      "æŀģé«ĺ": 8226,
      "è°¦": 8227,
      "æĹĭåį³å¥¹": 8228,
      "éĿĴçģµä¸¹": 8229,
      "åĩłå¹´": 8230,
      "æĢķä¹Łæĺ¯": 8231,
      "çİĭå°ĺ": 8232,
      "éľĩé£ŀ": 8233,
      "æīĭæİĮä¹ĭä¸Ĭ": 8234,
      "èĻ½çĦ¶ä»ĸ": 8235,
      "å¨Ĩ": 8236,
      "çļĦéĤ£èĤ¡": 8237,
      "åĲ¸åħ¥": 8238,
      "ç´«æľĪ": 8239,
      "ç²¾èĩ´": 8240,
      "åħ·æľī": 8241,
      "ä¿ĿçķĻ": 8242,
      "ä¸įçĶ±èĩªä¸»": 8243,
      "æĿŁç¼ļ": 8244,
      "éĹ·åĵ¼": 8245,
      "é¢Ŀå¤´ä¸Ĭ": 8246,
      "éŃĦåĬĽ": 8247,
      "æĮĤçĿĢ": 8248,
      "çļĦæĥ¨åı«å£°": 8249,
      "é»İçĽĽ": 8250,
      "ç¨ļå«©": 8251,
      "ĠãĢĲ": 8252,
      "ĭæĥľ": 8253,
      "çļĦè·¯": 8254,
      "ä¸Ģæ»´": 8255,
      "äºĨæı¡": 8256,
      "æĿİ": 8257,
      "äººåħĥåŃĲ": 8258,
      "èĢĮæŀĹåĬ¨": 8259,
      "ç»į": 8260,
      "æĥļ": 8261,
      "å£ĳ": 8262,
      "æ²»": 8263,
      "èĩŃ": 8264,
      "åľ°è¯Ŀ": 8265,
      "æĮ½": 8266,
      "äºİæĺ¯": 8267,
      "äºİä»ĸ": 8268,
      "åį´æĺ¯å¿½çĦ¶": 8269,
      "èĥ½å¤ŁæĪĲä¸º": 8270,
      "æĥĬæħĮ": 8271,
      "å¥¹ä¹Łæĺ¯": 8272,
      "å®ŀåĬĽè¾¾åĪ°": 8273,
      "å·¨åĵį": 8274,
      "åĽłä¸ºéĤ£": 8275,
      "èĭ¥çľŁæĺ¯": 8276,
      "å¤©åľ°ä¹ĭéĹ´": 8277,
      "èħ¾å±±": 8278,
      "åĸľèī²": 8279,
      "çķ¥å¾®çļĦæľīäºĽ": 8280,
      "çģ°åıĳèĢģèĢħ": 8281,
      "ä¸ĭæĸ¹éĤ£": 8282,
      "å¼ĤéŃĶçļĩ": 8283,
      "å®Įåħ¨çļĦ": 8284,
      "å°ıå¿ĥä¸ĢäºĽ": 8285,
      "é¢¤æĬĸäºĨèµ·æĿ¥": 8286,
      "éĽĦæµĳçļĦåħĥåĬĽ": 8287,
      "åĴ¬çĿĢçº¢åĶĩ": 8288,
      "ä»ĭç»į": 8289,
      "ä¸ĩèĿİéĹ¨": 8290,
      "ä¸Ģç¾¤": 8291,
      "éĤ£å°ı": 8292,
      "äººæµģ": 8293,
      "åĩºè¨Ģ": 8294,
      "è¯Ħ": 8295,
      "å¤§éŃĶéĹ¨": 8296,
      "ä¾¿æĺ¯å¦ĤåĲĮ": 8297,
      "ä½łä¼ļ": 8298,
      "è®²": 8299,
      "çºµ": 8300,
      "åı¯æķ°": 8301,
      "è¿ĺéľĢè¦ģ": 8302,
      "ç«ŁçĽ´æİ¥æĺ¯": 8303,
      "ä»İæĿ¥": 8304,
      "æŀģçĤ¹": 8305,
      "æĥĬçĸĳ": 8306,
      "æľ¬å°±æĺ¯": 8307,
      "éĶĢ": 8308,
      "åıĹäºĨ": 8309,
      "ä¸ĢèĤ¡æŀģç«¯": 8310,
      "éĢļçº¢": 8311,
      "æĲŃ": 8312,
      "åĳ¨åĽ´çļĦéĤ£äºĽ": 8313,
      "çĨ¬": 8314,
      "åĲĦå¤Ħ": 8315,
      "çĶŁçĶŁçİĦçģµ": 8316,
      "èĵĿèī²çļĦ": 8317,
      "çĭĤæļ´èĥ½éĩı": 8318,
      "çŀ¥äºĨ": 8319,
      "åģľçķĻåľ¨äºĨ": 8320,
      "åĩıç¼ĵ": 8321,
      "éģĹæĨ¾": 8322,
      "çļĦçĸ¯": 8323,
      "åĿĬå¸Ĥ": 8324,
      "ä¹Ŀå¹½åľ°åĨ¥èŁĴæĹı": 8325,
      "æĹ¶ä¸įæĹ¶çļĦ": 8326,
      "Ġå¦Ĥä»Ĭ": 8327,
      "çļĦå¥³äºº": 8328,
      "ä¸įæĢ¥": 8329,
      "è¿Ļå°ıå®¶ä¼Ļ": 8330,
      "çĤĻ": 8331,
      "ä¹ĭçļĦ": 8332,
      "ä¹ĭæĪĺ": 8333,
      "ä¹ĭå®Ŀ": 8334,
      "èĲ§åªļ": 8335,
      "èĲ§æ½ĩ": 8336,
      "æĸ¯": 8337,
      "å¤§ç¬ĳéģĵ": 8338,
      "å¦į": 8339,
      "ä½łè¿ĺæĺ¯": 8340,
      "âĢ¦âĢľ": 8341,
      "äºĨä¸ĢæŃ¥": 8342,
      "çĽ®éľ²": 8343,
      "åĮ¿": 8344,
      "å½ĵå¤´": 8345,
      "åį´æĺ¯æľīäºĽ": 8346,
      "èĥ½å¤Łè§ģåĪ°": 8347,
      "æľĽçĿĢæŀĹåĬ¨": 8348,
      "ä¸įè¿ĩä½ł": 8349,
      "çĶŁæĢķ": 8350,
      "éĩįåĩ»": 8351,
      "éĽ·è±¹": 8352,
      "èĲ½åľ¨äºĨ": 8353,
      "åĨ·åĨ·": 8354,
      "æĽ´å¤ļ": 8355,
      "å¸¦æĿ¥çļĦ": 8356,
      "æŃ¤æĹ¶çļĦä»ĸ": 8357,
      "ä¸ĩè±¡": 8358,
      "åħ³å¤´": 8359,
      "åıĸèĢĮ": 8360,
      "ä»¿ä½Ľéĥ½æĺ¯": 8361,
      "æĻ¶èİ¹": 8362,
      "åĸ·èĸĦ": 8363,
      "æĳĬå¼Ģ": 8364,
      "ä½İå£°åĸĥåĸĥéģĵ": 8365,
      "æ£®æŀĹä¸Ń": 8366,
      "æīĢèķ´åĲ«çļĦ": 8367,
      "çļĦä¸»äºº": 8368,
      "çĥĽåĿ¤": 8369,
      "ç´«æĻ¶ç¿¼çĭ®çİĭ": 8370,
      "Ġå°ıåĮ»ä»Ļ": 8371,
      "çļĦèĦ¸é¢Ĭä¸Ĭ": 8372,
      "åľ¨è¿ĻäºĽ": 8373,
      "å¾ĺ": 8374,
      "æĿ¥åĽŀ": 8375,
      "è¯»": 8376,
      "ä¹Łæĺ¯ä¸Ģç¬ĳ": 8377,
      "çĶľ": 8378,
      "å¾®æ²ī": 8379,
      "é»Ŀ": 8380,
      "æĹłè®º": 8381,
      "ä¸İè¿Ļ": 8382,
      "é»ĳçĤİ": 8383,
      "ä»ĸä»¬éĥ½æĺ¯": 8384,
      "åį´æĺ¯éĻ¡çĦ¶": 8385,
      "ä¸Ģéģĵäººå½±": 8386,
      "æķ°éģĵ": 8387,
      "åĲĮä¼´": 8388,
      "æ²īå¯Ĥ": 8389,
      "æ¸ħç§Ģ": 8390,
      "åĩºçİ°äºĨä¸ĢäºĽ": 8391,
      "è¸¢": 8392,
      "å¼łå¼Ģ": 8393,
      "å¹¶æ²¡æľīä»Ģä¹Ī": 8394,
      "ä¼Ĺäººä¾¿æĺ¯è§ģåĪ°": 8395,
      "åħ°åħĭ": 8396,
      "åľ¨ä¸Ģå¤Ħ": 8397,
      "çļĦçĽ¯çĿĢèĲ§çĤİ": 8398,
      "éªĩå¾Ĺ": 8399,
      "èĩªçĦ¶æĺ¯è¦ģ": 8400,
      "å¹¿åľºä¸Ń": 8401,
      "æļ´æİłèĢĮæĿ¥çļĦ": 8402,
      "æĺŁæĸĹèĢħ": 8403,
      "å°ıå¿ĥçĤ¹": 8404,
      "åĮħè£¹åľ¨": 8405,
      "çļĦæĮĳ": 8406,
      "è®ºèµ·": 8407,
      "æŃ»æŃ»çļĦ": 8408,
      "èĥ¡é¡»": 8409,
      "å®Įç¾İçļĦ": 8410,
      "çļĦæĻĭ": 8411,
      "çļĦæķ£åİ»": 8412,
      "éĤĢè¯·": 8413,
      "¸´": 8414,
      "ï¸´": 8415,
      "ãĢĬ": 8416,
      "åħģ": 8417,
      "ä¸įè¿ľ": 8418,
      "éĤ£æŀļ": 8419,
      "èĢĮå°±åľ¨": 8420,
      "çº·": 8421,
      "éĿ¢ç§¯": 8422,
      "èĢģå¦ĸ": 8423,
      "çľĭä¸į": 8424,
      "éĻĽ": 8425,
      "é»ĳæ°Ķ": 8426,
      "è¢«ç§°ä¸º": 8427,
      "ä½Ĩåħ¶": 8428,
      "éĿĴåı¶": 8429,
      "åĮĸæĪĲ": 8430,
      "æļ´éĽ¨": 8431,
      "å¢Ł": 8432,
      "çĮ¾": 8433,
      "åĩºæĿ¥äºĨ": 8434,
      "è§Ĩä¸º": 8435,
      "ç»ĻçĽ¯çĿĢ": 8436,
      "åŁİä¸»": 8437,
      "åį°åĨ³": 8438,
      "ĠèĲ§çĤİç¬ĳäºĨç¬ĳ": 8439,
      "éĤ£ç§įæĦŁè§ī": 8440,
      "æķ´é½Ĳ": 8441,
      "å¤©åľ°èĥ½éĩı": 8442,
      "åŃ¦çĶŁ": 8443,
      "æ´ŀå¤©": 8444,
      "åľ£çģµ": 8445,
      "çļĦå£°éŁ³ä¸Ń": 8446,
      "å¿ĥå¤´ä¹Łæĺ¯": 8447,
      "ä¿Ŀè¯ģ": 8448,
      "åĪĢéĶĭ": 8449,
      "å¼ºæĤįçļĦ": 8450,
      "éģĩè§ģäºĨ": 8451,
      "ä¸įçŁ¥ä½ķæĹ¶": 8452,
      "ç§°åĳ¼": 8453,
      "è½¬èº«å¯¹çĿĢ": 8454,
      "åºŁå¢Ł": 8455,
      "ä¹Ŀå¹½éĹ¨": 8456,
      "åĩ¡æĺ¯": 8457,
      "åĸ§éĹ¹": 8458,
      "è¥¿åĮĹåľ°åŁŁ": 8459,
      "Ġçł°çł°çł°": 8460,
      "åĵĹåķ¦åķ¦": 8461,
      "å¼Ĺåħ°åħĭ": 8462,
      "åıĸèĢĮä»£": 8463,
      "èª": 8464,
      "ä¸Ģæľµ": 8465,
      "äºĨæĬĸ": 8466,
      "è¿Ļå¤©åľ°éĹ´": 8467,
      "çĿĢä»ĸ": 8468,
      "çĽĬ": 8469,
      "å¤§éĩı": 8470,
      "æŀĹåĬ¨åľ¨": 8471,
      "å¯¹æĪĺ": 8472,
      "çĤ¹åĩº": 8473,
      "æł½": 8474,
      "æĸ¹éĿ¢": 8475,
      "çŃīä½ł": 8476,
      "ä»İè¿Ļ": 8477,
      "åĮĸçĶŁ": 8478,
      "åģ¿": 8479,
      "èĲ½è¿Ľ": 8480,
      "æļ´æĪ¾": 8481,
      "ç¬¬äºĶ": 8482,
      "ç¼ĵç¼ĵçĿģå¼Ģ": 8483,
      "çŁ¥éģĵäºĨ": 8484,
      "ä½ķå¿ħ": 8485,
      "æķ£èĢĮåĩº": 8486,
      "çĽ´æİ¥æĺ¯ä»¤å¾Ĺ": 8487,
      "æĢ§æł¼": 8488,
      "éľ²éĿ¢": 8489,
      "å¸¦çĿĢè®¸äºĽ": 8490,
      "ä¹ĭå¤ĸçļĦ": 8491,
      "æħķå²ļ": 8492,
      "æľ¨æĪĺ": 8493,
      "çļĦè¡Ģèħ¥": 8494,
      "åĵªæľī": 8495,
      "æ··è´¦": 8496,
      "æ²Ļåĵĳ": 8497,
      "è¿Ļæ¬¡çļĦ": 8498,
      "æ·¡æ·¡çļĦç¬ĳéģĵ": 8499,
      "æŀģç«¯çļĦ": 8500,
      "åĺ¿åĺ¿ä¸Ģç¬ĳ": 8501,
      "éĹªæİłèĢĮæĿ¥": 8502,
      "ç¬¬äºĮæ¬¡": 8503,
      "é¦ĻèĲ±": 8504,
      "å¼ĦåĪ°æīĭ": 8505,
      "çķ¥ä½ľæ²īåĲŁ": 8506,
      "èĥ¸èĨĽä¹ĭä¸Ĭ": 8507,
      "çªģå¦Ĥåħ¶æĿ¥": 8508,
      "éĹªçĶµèĪ¬çļĦæİł": 8509,
      "åºĦåĽŃ": 8510,
      "è¯¢éĹ®": 8511,
      "å±ħé«ĺä¸´": 8512,
      "å¾ĺå¾Ĭ": 8513,
      "åľ£çģµæ½Ń": 8514,
      "ĠåºĶç¬ĳç¬ĳ": 8515,
      "çļĦè§Ĩçº¿": 8516,
      "å°¤": 8517,
      "æĸ§": 8518,
      "åĪ°æĹ¶": 8519,
      "è½¨": 8520,
      "ä¾¿æĺ¯å°ĨéĤ£": 8521,
      "éĢĽ": 8522,
      "æĪĳä¸İ": 8523,
      "æ¯į": 8524,
      "æľĽäºĨ": 8525,
      "ä¸įè¿ĩåı¯æĥľ": 8526,
      "åħĥå¢ĥ": 8527,
      "å¦ĸæ½®": 8528,
      "èģĮ": 8529,
      "é¡¿æĹ¶ä¸Ģ": 8530,
      "ç¬¬ä¸ĢæĹ¶éĹ´": 8531,
      "å»Ĭ": 8532,
      "åı°ä¸ĬçļĦ": 8533,
      "åĵģè´¨": 8534,
      "çĽ¸å½ĵäºİ": 8535,
      "ç³Ł": 8536,
      "ä»ħä»ħåıªæľī": 8537,
      "è¯ķæİ¢": 8538,
      "è¿ĻçīĩåĮºåŁŁ": 8539,
      "éĹªçĥģéĹ´": 8540,
      "è°¢éĺİ": 8541,
      "æ¡Ī": 8542,
      "ç¢İçīĩ": 8543,
      "ç¡¬ç¢°": 8544,
      "å¼¹å°Ħ": 8545,
      "åįİéª¨": 8546,
      "éĽĦæµĳåħĥåĬĽ": 8547,
      "è´Łäºİèº«åĲİ": 8548,
      "æīŃæĽ²èµ·æĿ¥": 8549,
      "å¤§èįĴåı¤ç¢ĳ": 8550,
      "çĶŁæŃ»æ£ºçĽĸ": 8551,
      "æīĢåľ¨çļĦ": 8552,
      "åħ¨éĥ¨éĥ½æĺ¯": 8553,
      "çĪĨçĤ¸å¼ĢæĿ¥": 8554,
      "åĢ¼å¾Ĺ": 8555,
      "ä¾ĿéĿłçĿĢ": 8556,
      "éĶĭåĪ©çļĦ": 8557,
      "çģ¼çĥŃ": 8558,
      "è½¬è¿ĩèº«": 8559,
      "åĪļå¥½æĺ¯": 8560,
      "æıĲéĨĴéģĵ": 8561,
      "Ġè¯ĿéŁ³èĲ½ä¸ĭ": 8562,
      "éĤĻå±±": 8563,
      "çļĦæģ©æĢ¨": 8564,
      "çĶŁçĶŁçİĦçģµæŀľ": 8565,
      "Ġä¸¤èĢħ": 8566,
      "ĵé£İ": 8567,
      "çļĦä¾¿æĺ¯": 8568,
      "çļĦå¥ĩå¼Ĥ": 8569,
      "çļĦåıĮçľ¼": 8570,
      "ä¸įåģĩ": 8571,
      "ä¸įèı²": 8572,
      "çľº": 8573,
      "èĢĮèĲ§çĤİ": 8574,
      "ä¹Łä¸įè¿ĩ": 8575,
      "èĲ§çĤİå¾®å¾®ä¸Ģç¬ĳ": 8576,
      "åĲİçļĦ": 8577,
      "å¤§æµ·": 8578,
      "å¦ĪçļĦ": 8579,
      "æĥĭæĥľ": 8580,
      "æīĭèĦļ": 8581,
      "æĬ«": 8582,
      "çľĭåħ¶": 8583,
      "æľīçĿĢè®¸äºĽ": 8584,
      "é£ĵé£İ": 8585,
      "ä¸Ģéģĵé»ĳå½±": 8586,
      "æ·¡åĮĸ": 8587,
      "æİĮé£İ": 8588,
      "éĩįè´Ł": 8589,
      "çĽ´çĽ´": 8590,
      "åºĶéģĵ": 8591,
      "äºĳéĽ¾": 8592,
      "é¡¿äºĨ": 8593,
      "åĵįäº®": 8594,
      "å¯¹äºİè¿ĻäºĽ": 8595,
      "èħ¹": 8596,
      "åĹľ": 8597,
      "æģĲæĢķä¹Łæĺ¯": 8598,
      "ä¹ĭåĲİä¸įä¹ħ": 8599,
      "ç²¾å½©": 8600,
      "æĢĴåĸĿ": 8601,
      "å«ī": 8602,
      "çļĦæİ¢": 8603,
      "å±ħçĦ¶ä¾¿æĺ¯": 8604,
      "æ¼łéĵģ": 8605,
      "èĶļ": 8606,
      "çħŀçĻ½": 8607,
      "é»ĳè¢įéĿĴå¹´": 8608,
      "ä¸ĢæŃ¥è·¨åĩº": 8609,
      "å®ĭæ¸ħ": 8610,
      "ä¿ıèĦ¸ä¸Ĭ": 8611,
      "çļĦæ²Ļ": 8612,
      "çļĦçł´é£İ": 8613,
      "ä¸įè®ºæĺ¯": 8614,
      "çļĦèĦĳè¢ĭ": 8615,
      "æĺ¯ä½ł": 8616,
      "æĺ¯ä¸įæĺ¯": 8617,
      "éĤ£è¾¹": 8618,
      "éĤ£èĢģå®¶ä¼Ļ": 8619,
      "åĩºä¸Ģä¸ª": 8620,
      "èĲ§çĤİæľīäºĽ": 8621,
      "å°ıåĵ¥": 8622,
      "çľ¼èĬĴ": 8623,
      "åı¯ä¸įèĥ½": 8624,
      "çģ«é¼İ": 8625,
      "çģ«æµª": 8626,
      "è¿ĺè¯·": 8627,
      "æ¸º": 8628,
      "æĪĲç»©": 8629,
      "è¯ĿåĪ°": 8630,
      "é¢ĵ": 8631,
      "ç´Ĭ": 8632,
      "è¿ĽæĶ»": 8633,
      "éŃĤåİī": 8634,
      "ä¸ĢäºĽå®ŀåĬĽ": 8635,
      "å¦ĸèĬ±": 8636,
      "èµ°å»Ĭ": 8637,
      "å¤ªå¤ļçļĦ": 8638,
      "æīĭæİĮè½»": 8639,
      "è¸©": 8640,
      "çľ¼ç¥ŀä¹Łæĺ¯": 8641,
      "åĸľæĦı": 8642,
      "éĻ¤éĿŀ": 8643,
      "éĤ£ä¹Īå®¹æĺĵ": 8644,
      "æ··æ²Į": 8645,
      "æīŃæĽ²çļĦç©ºéĹ´": 8646,
      "åĪĨéĴŁçļĦæĹ¶éĹ´": 8647,
      "ä¸įåı¯æĢĿè®®": 8648,
      "çļĦæļ´æ¶ĮèĢĮåĩº": 8649,
      "ä¹ĲæĦı": 8650,
      "æħĮä¹±": 8651,
      "Ġ[": 8652,
      "Ġé»ĳæļĹ": 8653,
      "ï¼Ľ": 8654,
      "âĢĿãĢĤ": 8655,
      "æĪ´": 8656,
      "æĿ¥æī¾": 8657,
      "èĲ§çĤİå°Ĩ": 8658,
      "å¤§åĬĽ": 8659,
      "ä¾¿æĺ¯åıĺå¾Ĺ": 8660,
      "å¯¹éĤ£": 8661,
      "ä½łä¸į": 8662,
      "åīĶ": 8663,
      "åħ¶èº«å½¢": 8664,
      "ä»¥ä½ł": 8665,
      "å°±æŃ¤": 8666,
      "é»ĳåİĭåİĭ": 8667,
      "å¤ļäºĨ": 8668,
      "æľĢå¿«": 8669,
      "çģµçĽĸ": 8670,
      "éĩįåĪĽ": 8671,
      "éĽ·èĽĩ": 8672,
      "éĽ·æºĲ": 8673,
      "çĽ´åĨ²": 8674,
      "æĤ£": 8675,
      "åħ¥ä½ĵ": 8676,
      "è¡Įäºĭ": 8677,
      "æ³¢èį¡": 8678,
      "å¯¹äºİéĤ£": 8679,
      "éĩĳèī²çļĦ": 8680,
      "ä¸įæĺ¯å¯»å¸¸": 8681,
      "çĪĨè½°": 8682,
      "å¦ĤæŃ¤ä¸ĢæĿ¥": 8683,
      "è¡£çĶ·åŃĲ": 8684,
      "åºĶè¯¥ä¸įä¼ļ": 8685,
      "èģĶåĲĪ": 8686,
      "å¸®æīĭ": 8687,
      "èĻİæĹı": 8688,
      "äºĳå²ļå®ĹçļĦ": 8689,
      "æ¯ıä¸Ģä¸ª": 8690,
      "æĺ¾å¾Ĺæł¼å¤ĸçļĦ": 8691,
      "å§Ĳå¦¹": 8692,
      "ç¬¬ä¸ĢåįĥäºĶçĻ¾": 8693,
      "çĵľ": 8694,
      "åįĬçĤ¹çļĦ": 8695,
      "çĶŁæŃ»ä¹ĭä¸»": 8696,
      "éªĤéģĵ": 8697,
      "æ¤ħä¸Ĭ": 8698,
      "å®ģéĿĻ": 8699,
      "æģįæĥļ": 8700,
      "çļĦçĹĽ": 8701,
      "ä¼łè¯´ä¸ŃçļĦ": 8702,
      "çļĦæ¬¢": 8703,
      "æ³¥ä¸¸å®«åĨħ": 8704,
      "éĽıä¸¹": 8705,
      "èħĲèļĢ": 8706,
      "éĽ·å¸ĿæĿĥæĿĸ": 8707,
      "çĨıåĦ¿": 8708,
      "çľ¨äºĨçľ¨": 8709,
      "è´§çľŁä»·å®ŀçļĦ": 8710,
      "ĠâĢĺ": 8711,
      "ï¼Į[": 8712,
      "çļĦé²ľè¡Ģ": 8713,
      "ãĢĤâĢĻâĢĻ": 8714,
      "ä»ĸå·²ç»ı": 8715,
      "ä»ĸåı¯æĺ¯": 8716,
      "åºŃ": 8717,
      "å¦ĤéĽ·": 8718,
      "ä½łæĿ¥": 8719,
      "æīĢæĥ³": 8720,
      "éĻµ": 8721,
      "ä»ĸä»¬çŁ¥éģĵ": 8722,
      "èĥ½å¤Łè¾¾åĪ°": 8723,
      "æľĽçĿĢéĤ£äºĽ": 8724,
      "ä¸įè¿ĩè¿Ļç§į": 8725,
      "åı¤éĽħ": 8726,
      "ä»İå¤©": 8727,
      "çĻ½åħī": 8728,
      "æıı": 8729,
      "ĠæŀĹåĬ¨éĹ»è¨Ģ": 8730,
      "ä½ķå¤Ħ": 8731,
      "ç²¹": 8732,
      "åĹ¦": 8733,
      "ç«ŁçĦ¶å¦ĤæŃ¤": 8734,
      "åİīå£°åĸĿéģĵ": 8735,
      "äºĶåĲį": 8736,
      "ä»¤å¾Ĺå¥¹": 8737,
      "ä»Ļåħĥ": 8738,
      "åį³ä¾¿æĺ¯ä»¥": 8739,
      "ä¸Ģéģĵéģĵèº«å½±": 8740,
      "çĶµåħī": 8741,
      "å¿½çĦ¶éĹ´": 8742,
      "æħķéĿĴé¸¾": 8743,
      "éĥģéĹ·": 8744,
      "åı³æİĮ": 8745,
      "ä¸ĸéĹ´": 8746,
      "ä¸ĢæĮ¥æīĭ": 8747,
      "æķ£åıĳçĿĢ": 8748,
      "èĦĨå¼±": 8749,
      "éľĩæĥĬä¹ĭèī²": 8750,
      "é¦ĸåıĳ": 8751,
      "è°ģéĥ½çŁ¥éģĵ": 8752,
      "çļĦçªģ": 8753,
      "å¤©åħĥåŃĲ": 8754,
      "åĢ¾æ´ĴèĢĮä¸ĭ": 8755,
      "æ±¹æ¶Į": 8756,
      "ç¥ĿçĬģå¤§éķ¿èĢģ": 8757,
      "æĪªçĦ¶ä¸įåĲĮ": 8758,
      "è£ģåĪ¤": 8759,
      "é¡¿äºĨé¡¿": 8760,
      "±æĭ³": 8761,
      "âī": 8762,
      "çļĦå¥ĩ": 8763,
      "çļĦå¼§åº¦": 8764,
      "ä¸įå¤Ł": 8765,
      "è¿ĻæīĢè°ĵçļĦ": 8766,
      "çĿĢå®ŀ": 8767,
      "å¾ª": 8768,
      "æľīå¤ļå°ĳ": 8769,
      "æĢłæħ¢": 8770,
      "å¤´ä¸Ĭ": 8771,
      "åĢĶ": 8772,
      "æľīçĿĢä¸Ģä¸Ŀ": 8773,
      "å½ĵæĹ¶": 8774,
      "å®¶ä¸»": 8775,
      "ä¸¤æŃ¥": 8776,
      "ä¸įè¿ĩæīĢå¹¸": 8777,
      "ä»İèĲ§çĤİ": 8778,
      "è®©çļĦ": 8779,
      "è®©ä½łä»¬": 8780,
      "åħĥæ°Ķ": 8781,
      "éŃĶçĮ¿": 8782,
      "çĦ¶åĲİä»ĸ": 8783,
      "é£İæµ·åŁŁ": 8784,
      "å·¨æīĭ": 8785,
      "é¾Ł": 8786,
      "éŁ³çĪĨ": 8787,
      "è§ģåĪ°ä»ĸ": 8788,
      "ä¸ĢæĬ¬": 8789,
      "éĺ´çħŀä¹ĭæ°Ķ": 8790,
      "åį°ç¬¦å¸Ī": 8791,
      "éĥĿ": 8792,
      "èĢĮä¸Ķè¿Ļ": 8793,
      "çĽ´æİ¥å°Ĩ": 8794,
      "åģľäºĨä¸ĭæĿ¥": 8795,
      "å¹²å°¸": 8796,
      "çļĦå¤§æĪĺ": 8797,
      "è¿Ļæł·çļĦè¯Ŀ": 8798,
      "éº»çĥ¦äºĨ": 8799,
      "çĪĨåıĳå¼ĢæĿ¥": 8800,
      "æ²īåĲŁäºĨä¸Ģä¸ĭ": 8801,
      "æŀ¯ç«Ń": 8802,
      "æł¸å¿ĥ": 8803,
      "çļĦçł´é£İå£°": 8804,
      "éģ¥è¿ľçļĦ": 8805,
      "çļĦæ·¡æ·¡": 8806,
      "æıīäºĨæıī": 8807,
      "çļĦæİ¥è¿ĳ": 8808,
      "å®½æķŀçļĦ": 8809,
      "çļĦæ±ĩ": 8810,
      "éĻĢèĪįåı¤å¸Ŀçİī": 8811,
      "æİ¨èįĲç¥¨": 8812,
      "çļĦçĸ¯çĭĤ": 8813,
      "µæĩĴ": 8814,
      "ĠåİŁæľ¬": 8815,
      "Ġä¼¼æĺ¯": 8816,
      "çļĦæĸ°çĶŁ": 8817,
      "ä¸Ģæīĭ": 8818,
      "éĤ£åĽ¢": 8819,
      "èĢĮä¸į": 8820,
      "ä¸ĬçĻ¾": 8821,
      "åº¸": 8822,
      "åħīåį°": 8823,
      "æ²Ĳ": 8824,
      "éĿ¢ä¹ĭä¸Ĭ": 8825,
      "æ¶Ĥ": 8826,
      "ä½ĵåŀĭ": 8827,
      "åŃĲçļĦ": 8828,
      "ä¸īæŀļ": 8829,
      "åģ¥": 8830,
      "éļ¾éĢĥ": 8831,
      "éľĩç¢İ": 8832,
      "åĬłèĢģ": 8833,
      "äº¤åıī": 8834,
      "èĢĮä¸ĶæľĢ": 8835,
      "æĶ¾ä¸ĭ": 8836,
      "çİīçīĩ": 8837,
      "æį¡": 8838,
      "å¾ħéģĩ": 8839,
      "åĲİèĢħéĤ£": 8840,
      "éĻ¢éķ¿": 8841,
      "æ¯ķå²©": 8842,
      "è¿ĻçŃīå®ŀåĬĽ": 8843,
      "ä¸ĢçĽ´éĥ½æĺ¯": 8844,
      "çļĦè¡Ģèī²": 8845,
      "åĨ²çĿĢä»ĸ": 8846,
      "ç¬¬ä¸ĢåįĥéĽ¶": 8847,
      "æĽ¹åįķ": 8848,
      "ç¨³å®ļ": 8849,
      "æ¶Īæķ£èĢĮåİ»": 8850,
      "æĪ¿éĹ´ä¸Ń": 8851,
      "æĹłå£°æģ¯": 8852,
      "æ´ªèįĴå¡Ķ": 8853,
      "ç®Ĺå¾Ĺä¸Ĭæĺ¯": 8854,
      "çļĦçľ¼çĿĽ": 8855,
      "è¿Ļä¹Łæĺ¯": 8856,
      "çĿĢåĺ´": 8857,
      "åĬ¨äººçļĦ": 8858,
      "èĲ¦": 8859,
      "äººå®¶": 8860,
      "åĩºéĿ¢": 8861,
      "ç»¯": 8862,
      "åİ®": 8863,
      "å¤©åĩ°": 8864,
      "æĪĳä¹Łä¸į": 8865,
      "ç§įå¼Ĥçģ«": 8866,
      "è¯´èµ·": 8867,
      "è¶ĭ": 8868,
      "çģµæ°Ķ": 8869,
      "æı½": 8870,
      "è½¬åĬ¨": 8871,
      "é¾Ļéª¨": 8872,
      "çĻ¾ä¸Īåºŀå¤§çļĦ": 8873,
      "çķ¥æľī": 8874,
      "èħķ": 8875,
      "é«ĺéĺ¶": 8876,
      "æľĽçĿĢéĤ£åľ¨": 8877,
      "å°Ħè¿Ľ": 8878,
      "æ®µæĸĹä¹ĭæ°Ķ": 8879,
      "è°·ä¸»": 8880,
      "æĬĸåĬ¨": 8881,
      "æ´¾äºº": 8882,
      "åľ°éĿ¢ä¹ĭä¸Ĭ": 8883,
      "åĸ·äºĨåĩºæĿ¥": 8884,
      "äºīæĸĹ": 8885,
      "åĿļåĽº": 8886,
      "å¤ľèī²": 8887,
      "æīĢè¯´çļĦ": 8888,
      "åĴ»åĴ»": 8889,
      "äºĨåĩłåĪĨ": 8890,
      "åģ·è¢Ń": 8891,
      "å¢ŀå¼º": 8892,
      "è¿İéĿ¢": 8893,
      "åı¹æģ¯éģĵ": 8894,
      "å¼¯èº«": 8895,
      "ä¸įå¾Ĺä¸įè¯´": 8896,
      "çļĦæİ¨ç§»": 8897,
      "çĲīçĴĥèİ²å¿ĥçģ«": 8898,
      "éĥĿéķ¿èĢģ": 8899,
      "Ġä¸İ": 8900,
      "Ġæĺ¾çĦ¶": 8901,
      "æĺ¯éĤ£": 8902,
      "æĺ¯åķĬ": 8903,
      "è¿¸": 8904,
      "ä¸įä¿¡": 8905,
      "äººæµ·": 8906,
      "èĢĮè¿Ļç§į": 8907,
      "ä¸Ńä¼łåĩº": 8908,
      "çĤİåĪ©": 8909,
      "èĲ§çĤİçļĦçĽ®åħī": 8910,
      "æ¯Ļ": 8911,
      "åĮķ": 8912,
      "æľīçĿĢä¸ĢçĤ¹": 8913,
      "ä¸¤æĹ¥": 8914,
      "é¢¢": 8915,
      "éŁ§": 8916,
      "é¾Ļåĩ°": 8917,
      "å¦ĸçģµ": 8918,
      "åĩ»æºĥ": 8919,
      "æĽ´å¤ļçļĦ": 8920,
      "éĺ´åİī": 8921,
      "åĪĨæĺİ": 8922,
      "çļĦéģĵå®Ĺ": 8923,
      "æ·±éĤĥ": 8924,
      "çľ¼ä¸Ńå¯ĴèĬĴ": 8925,
      "ç©ºéĹ´éĥ½æĺ¯": 8926,
      "ä¸įä½ıçļĦ": 8927,
      "éº»æľ¨": 8928,
      "çģ°ç´«": 8929,
      "æŁ³é¦ĻèĲ±": 8930,
      "Ġè§ģåĪ°è¿Ļ": 8931,
      "èĻİåķ¸": 8932,
      "è®¤çľŁ": 8933,
      "åħħçĽĪ": 8934,
      "æ¡ĳ": 8935,
      "è¶ĬæĿ¥è¶Ĭè¿ĳ": 8936,
      "åħĥéĹ¨ä¸ī": 8937,
      "ä½Ĩåį´å¹¶æľª": 8938,
      "ç¦»å¼ĢäºĨ": 8939,
      "åıĮçĽ®å¾®çľ¯": 8940,
      "çļĦæĮ£æīİ": 8941,
      "å°¾å·´": 8942,
      "éĵºå¤©çĽĸåľ°çļĦå¯¹çĿĢ": 8943,
      "ç²īçº¢": 8944,
      "éĢłåĮĸå¢ĥå·ħå³°": 8945,
      "ä¾¿èµ°åĩºçİ°åľ¨": 8946,
      "æ¤ħåŃĲ": 8947,
      "çļĦæĸ¹ä½į": 8948,
      "å¤©éĺ¶çģµå®Ŀ": 8949,
      "åĽļå¤©": 8950,
      "çļĦæ½ľ": 8951,
      "çļĦæĶ¯æĮģ": 8952,
      "å¦ĸèĬ±éĤªåĲĽ": 8953,
      "èĲ¦ç»ķ": 8954,
      "ç»¯çº¢": 8955,
      "·èĵĿ": 8956,
      "ĠçªģçĦ¶": 8957,
      "çļĦç»Ŀ": 8958,
      "çļĦåĬŁæ³ķ": 8959,
      "æĺ¯ä¸ĢåĲį": 8960,
      "äºĨæĬ¿": 8961,
      "ä¸įç»ı": 8962,
      "åľ¨å¤©ç©º": 8963,
      "ä»ĸçļĦè¯Ŀ": 8964,
      "ä»ĸå·²æĺ¯": 8965,
      "å¾Ĺå¾Ī": 8966,
      "å¤©èī²": 8967,
      "å¾®åĩĿ": 8968,
      "å¾®åŀĤ": 8969,
      "çİ°äºĨ": 8970,
      "æľĢå¤§": 8971,
      "åĨįèĢħ": 8972,
      "åı¤æľ´": 8973,
      "æĹĭåį³çľ¼ç¥ŀ": 8974,
      "ä¸¹åŁİ": 8975,
      "èĬ·èĵĿ": 8976,
      "æľ¬åº§": 8977,
      "è§ģåĪ°è¿Ļ": 8978,
      "äºĮäººçļĦ": 8979,
      "ç¬¦åį°": 8980,
      "æģĲæĢķè¿ŀ": 8981,
      "éĢĢç¼©": 8982,
      "åĪ°äºĨè¿Ļç§įåľ°æŃ¥": 8983,
      "æį§": 8984,
      "éĴ¢": 8985,
      "è²ĤçĪ·": 8986,
      "é©»": 8987,
      "çĽ´æİ¥æĺ¯åĮĸä¸º": 8988,
      "èİ«æµĭ": 8989,
      "åĿĲéķĩ": 8990,
      "é¢ĩæľī": 8991,
      "çĮĽçĦ¶ä¸Ģ": 8992,
      "çĮĽçĦ¶èĩª": 8993,
      "ç«Ļèµ·": 8994,
      "èĦĳåŃĲ": 8995,
      "***": 8996,
      "åıªè§ģå¾Ĺåľ¨éĤ£": 8997,
      "åĨ²åĩ»æ³¢": 8998,
      "å¯ĤéĿĻæĹłå£°": 8999,
      "éĢīæĭ©äºĨ": 9000,
      "èī³ç¾¡": 9001,
      "çĨĬæĪĺ": 9002,
      "ä¸Ńå¤®ä½įç½®": 9003,
      "é»ĳè¡£çĶ·åŃĲ": 9004,
      "çļĦæ£®æŀĹ": 9005,
      "çļĦæ¬£": 9006,
      "åĪģéĴ»": 9007,
      "çļĦæīĵç®Ĺ": 9008,
      "çļĦå±ĢéĿ¢": 9009,
      "ä»ª": 9010,
      "åľ¨ä½ĵåĨħ": 9011,
      "ä»ĸéĥ½": 9012,
      "å¾Ĺä»¤äºº": 9013,
      "åĲİæŀľ": 9014,
      "å¤§åĸľ": 9015,
      "å¤©é³ŀåı¤æĪŁ": 9016,
      "åĽ¦": 9017,
      "ä½łåİ»": 9018,
      "ä¼ļéķ¿": 9019,
      "åĢ¦": 9020,
      "æ¬ł": 9021,
      "é»ĳçĽŁ": 9022,
      "å½ĵåį³ä¾¿æĺ¯": 9023,
      "éĥ½æĺ¯å¿įä¸įä½ı": 9024,
      "ä»ĸä»¬çļĦçĽ®åħī": 9025,
      "è½»é£İ": 9026,
      "é¢ħ": 9027,
      "å±±è¡Ģæ½Ń": 9028,
      "éĩįè§Ĩ": 9029,
      "å¯¹çĿĢä»ĸ": 9030,
      "èº«ä½ĵä¹ĭä¸Ń": 9031,
      "èĥİ": 9032,
[...]
